[PAD]
[unused0]
[unused1]
[unused2]
[unused3]
[unused4]
[unused5]
[unused6]
[unused7]
[unused8]
[unused9]
[unused10]
[unused11]
[unused12]
[unused13]
[unused14]
[unused15]
[unused16]
[unused17]
[unused18]
[unused19]
[unused20]
[unused21]
[unused22]
[unused23]
[unused24]
[unused25]
[unused26]
[unused27]
[unused28]
[unused29]
[unused30]
[unused31]
[unused32]
[unused33]
[unused34]
[unused35]
[unused36]
[unused37]
[unused38]
[unused39]
[unused40]
[unused41]
[unused42]
[unused43]
[unused44]
[unused45]
[unused46]
[unused47]
[unused48]
[unused49]
[unused50]
[unused51]
[unused52]
[unused53]
[unused54]
[unused55]
[unused56]
[unused57]
[unused58]
[unused59]
[unused60]
[unused61]
[unused62]
[unused63]
[unused64]
[unused65]
[unused66]
[unused67]
[unused68]
[unused69]
[unused70]
[unused71]
[unused72]
[unused73]
[unused74]
[unused75]
[unused76]
[unused77]
[unused78]
[unused79]
[unused80]
[unused81]
[unused82]
[unused83]
[unused84]
[unused85]
[unused86]
[unused87]
[unused88]
[unused89]
[unused90]
[unused91]
[unused92]
[unused93]
[unused94]
[unused95]
[unused96]
[unused97]
[unused98]
[UNK]
[CLS]
[SEP]
[MASK]
[unused99]
[unused100]
[unused101]
[unused102]
[unused103]
[unused104]
[unused105]
[unused106]
[unused107]
[unused108]
[unused109]
[unused110]
[unused111]
[unused112]
[unused113]
[unused114]
[unused115]
[unused116]
[unused117]
[unused118]
[unused119]
[unused120]
[unused121]
[unused122]
[unused123]
[unused124]
[unused125]
[unused126]
[unused127]
[unused128]
[unused129]
[unused130]
[unused131]
[unused132]
[unused133]
[unused134]
[unused135]
[unused136]
[unused137]
[unused138]
[unused139]
[unused140]
[unused141]
[unused142]
[unused143]
[unused144]
[unused145]
[unused146]
[unused147]
[unused148]
[unused149]
[unused150]
[unused151]
[unused152]
[unused153]
[unused154]
[unused155]
[unused156]
[unused157]
[unused158]
[unused159]
[unused160]
[unused161]
[unused162]
[unused163]
[unused164]
[unused165]
[unused166]
[unused167]
[unused168]
[unused169]
[unused170]
[unused171]
[unused172]
[unused173]
[unused174]
[unused175]
[unused176]
[unused177]
[unused178]
[unused179]
[unused180]
[unused181]
[unused182]
[unused183]
[unused184]
[unused185]
[unused186]
[unused187]
[unused188]
[unused189]
[unused190]
[unused191]
[unused192]
[unused193]
[unused194]
[unused195]
[unused196]
[unused197]
[unused198]
[unused199]
[unused200]
[unused201]
[unused202]
[unused203]
[unused204]
[unused205]
[unused206]
[unused207]
[unused208]
[unused209]
[unused210]
[unused211]
[unused212]
[unused213]
[unused214]
[unused215]
[unused216]
[unused217]
[unused218]
[unused219]
[unused220]
[unused221]
[unused222]
[unused223]
[unused224]
[unused225]
[unused226]
[unused227]
[unused228]
[unused229]
[unused230]
[unused231]
[unused232]
[unused233]
[unused234]
[unused235]
[unused236]
[unused237]
[unused238]
[unused239]
[unused240]
[unused241]
[unused242]
[unused243]
[unused244]
[unused245]
[unused246]
[unused247]
[unused248]
[unused249]
[unused250]
[unused251]
[unused252]
[unused253]
[unused254]
[unused255]
[unused256]
[unused257]
[unused258]
[unused259]
[unused260]
[unused261]
[unused262]
[unused263]
[unused264]
[unused265]
[unused266]
[unused267]
[unused268]
[unused269]
[unused270]
[unused271]
[unused272]
[unused273]
[unused274]
[unused275]
[unused276]
[unused277]
[unused278]
[unused279]
[unused280]
[unused281]
[unused282]
[unused283]
[unused284]
[unused285]
[unused286]
[unused287]
[unused288]
[unused289]
[unused290]
[unused291]
[unused292]
[unused293]
[unused294]
[unused295]
[unused296]
[unused297]
[unused298]
[unused299]
[unused300]
[unused301]
[unused302]
[unused303]
[unused304]
[unused305]
[unused306]
[unused307]
[unused308]
[unused309]
[unused310]
[unused311]
[unused312]
[unused313]
[unused314]
[unused315]
[unused316]
[unused317]
[unused318]
[unused319]
[unused320]
[unused321]
[unused322]
[unused323]
[unused324]
[unused325]
[unused326]
[unused327]
[unused328]
[unused329]
[unused330]
[unused331]
[unused332]
[unused333]
[unused334]
[unused335]
[unused336]
[unused337]
[unused338]
[unused339]
[unused340]
[unused341]
[unused342]
[unused343]
[unused344]
[unused345]
[unused346]
[unused347]
[unused348]
[unused349]
[unused350]
[unused351]
[unused352]
[unused353]
[unused354]
[unused355]
[unused356]
[unused357]
[unused358]
[unused359]
[unused360]
[unused361]
[unused362]
[unused363]
[unused364]
[unused365]
[unused366]
[unused367]
[unused368]
[unused369]
[unused370]
[unused371]
[unused372]
[unused373]
[unused374]
[unused375]
[unused376]
[unused377]
[unused378]
[unused379]
[unused380]
[unused381]
[unused382]
[unused383]
[unused384]
[unused385]
[unused386]
[unused387]
[unused388]
[unused389]
[unused390]
[unused391]
[unused392]
[unused393]
[unused394]
[unused395]
[unused396]
[unused397]
[unused398]
[unused399]
[unused400]
[unused401]
[unused402]
[unused403]
[unused404]
[unused405]
[unused406]
[unused407]
[unused408]
[unused409]
[unused410]
[unused411]
[unused412]
[unused413]
[unused414]
[unused415]
[unused416]
[unused417]
[unused418]
[unused419]
[unused420]
[unused421]
[unused422]
[unused423]
[unused424]
[unused425]
[unused426]
[unused427]
[unused428]
[unused429]
[unused430]
[unused431]
[unused432]
[unused433]
[unused434]
[unused435]
[unused436]
[unused437]
[unused438]
[unused439]
[unused440]
[unused441]
[unused442]
[unused443]
[unused444]
[unused445]
[unused446]
[unused447]
[unused448]
[unused449]
[unused450]
[unused451]
[unused452]
[unused453]
[unused454]
[unused455]
[unused456]
[unused457]
[unused458]
[unused459]
[unused460]
[unused461]
[unused462]
[unused463]
[unused464]
[unused465]
[unused466]
[unused467]
[unused468]
[unused469]
[unused470]
[unused471]
[unused472]
[unused473]
[unused474]
[unused475]
[unused476]
[unused477]
[unused478]
[unused479]
[unused480]
[unused481]
[unused482]
[unused483]
[unused484]
[unused485]
[unused486]
[unused487]
[unused488]
[unused489]
[unused490]
[unused491]
[unused492]
[unused493]
[unused494]
[unused495]
[unused496]
[unused497]
[unused498]
[unused499]
[unused500]
[unused501]
[unused502]
[unused503]
[unused504]
[unused505]
[unused506]
[unused507]
[unused508]
[unused509]
[unused510]
[unused511]
[unused512]
[unused513]
[unused514]
[unused515]
[unused516]
[unused517]
[unused518]
[unused519]
[unused520]
[unused521]
[unused522]
[unused523]
[unused524]
[unused525]
[unused526]
[unused527]
[unused528]
[unused529]
[unused530]
[unused531]
[unused532]
[unused533]
[unused534]
[unused535]
[unused536]
[unused537]
[unused538]
[unused539]
[unused540]
[unused541]
[unused542]
[unused543]
[unused544]
[unused545]
[unused546]
[unused547]
[unused548]
[unused549]
[unused550]
[unused551]
[unused552]
[unused553]
[unused554]
[unused555]
[unused556]
[unused557]
[unused558]
[unused559]
[unused560]
[unused561]
[unused562]
[unused563]
[unused564]
[unused565]
[unused566]
[unused567]
[unused568]
[unused569]
[unused570]
[unused571]
[unused572]
[unused573]
[unused574]
[unused575]
[unused576]
[unused577]
[unused578]
[unused579]
[unused580]
[unused581]
[unused582]
[unused583]
[unused584]
[unused585]
[unused586]
[unused587]
[unused588]
[unused589]
[unused590]
[unused591]
[unused592]
[unused593]
[unused594]
[unused595]
[unused596]
[unused597]
[unused598]
[unused599]
[unused600]
[unused601]
[unused602]
[unused603]
[unused604]
[unused605]
[unused606]
[unused607]
[unused608]
[unused609]
[unused610]
[unused611]
[unused612]
[unused613]
[unused614]
[unused615]
[unused616]
[unused617]
[unused618]
[unused619]
[unused620]
[unused621]
[unused622]
[unused623]
[unused624]
[unused625]
[unused626]
[unused627]
[unused628]
[unused629]
[unused630]
[unused631]
[unused632]
[unused633]
[unused634]
[unused635]
[unused636]
[unused637]
[unused638]
[unused639]
[unused640]
[unused641]
[unused642]
[unused643]
[unused644]
[unused645]
[unused646]
[unused647]
[unused648]
[unused649]
[unused650]
[unused651]
[unused652]
[unused653]
[unused654]
[unused655]
[unused656]
[unused657]
[unused658]
[unused659]
[unused660]
[unused661]
[unused662]
[unused663]
[unused664]
[unused665]
[unused666]
[unused667]
[unused668]
[unused669]
[unused670]
[unused671]
[unused672]
[unused673]
[unused674]
[unused675]
[unused676]
[unused677]
[unused678]
[unused679]
[unused680]
[unused681]
[unused682]
[unused683]
[unused684]
[unused685]
[unused686]
[unused687]
[unused688]
[unused689]
[unused690]
[unused691]
[unused692]
[unused693]
[unused694]
[unused695]
[unused696]
[unused697]
[unused698]
[unused699]
[unused700]
[unused701]
[unused702]
[unused703]
[unused704]
[unused705]
[unused706]
[unused707]
[unused708]
[unused709]
[unused710]
[unused711]
[unused712]
[unused713]
[unused714]
[unused715]
[unused716]
[unused717]
[unused718]
[unused719]
[unused720]
[unused721]
[unused722]
[unused723]
[unused724]
[unused725]
[unused726]
[unused727]
[unused728]
[unused729]
[unused730]
[unused731]
[unused732]
[unused733]
[unused734]
[unused735]
[unused736]
[unused737]
[unused738]
[unused739]
[unused740]
[unused741]
[unused742]
[unused743]
[unused744]
[unused745]
[unused746]
[unused747]
[unused748]
[unused749]
[unused750]
[unused751]
[unused752]
[unused753]
[unused754]
[unused755]
[unused756]
[unused757]
[unused758]
[unused759]
[unused760]
[unused761]
[unused762]
[unused763]
[unused764]
[unused765]
[unused766]
[unused767]
[unused768]
[unused769]
[unused770]
[unused771]
[unused772]
[unused773]
[unused774]
[unused775]
[unused776]
[unused777]
[unused778]
[unused779]
[unused780]
[unused781]
[unused782]
[unused783]
[unused784]
[unused785]
[unused786]
[unused787]
[unused788]
[unused789]
[unused790]
[unused791]
[unused792]
[unused793]
[unused794]
[unused795]
[unused796]
[unused797]
[unused798]
[unused799]
[unused800]
[unused801]
[unused802]
[unused803]
[unused804]
[unused805]
[unused806]
[unused807]
[unused808]
[unused809]
[unused810]
[unused811]
[unused812]
[unused813]
[unused814]
[unused815]
[unused816]
[unused817]
[unused818]
[unused819]
[unused820]
[unused821]
[unused822]
[unused823]
[unused824]
[unused825]
[unused826]
[unused827]
[unused828]
[unused829]
[unused830]
[unused831]
[unused832]
[unused833]
[unused834]
[unused835]
[unused836]
[unused837]
[unused838]
[unused839]
[unused840]
[unused841]
[unused842]
[unused843]
[unused844]
[unused845]
[unused846]
[unused847]
[unused848]
[unused849]
[unused850]
[unused851]
[unused852]
[unused853]
[unused854]
[unused855]
[unused856]
[unused857]
[unused858]
[unused859]
[unused860]
[unused861]
[unused862]
[unused863]
[unused864]
[unused865]
[unused866]
[unused867]
[unused868]
[unused869]
[unused870]
[unused871]
[unused872]
[unused873]
[unused874]
[unused875]
[unused876]
[unused877]
[unused878]
[unused879]
[unused880]
[unused881]
[unused882]
[unused883]
[unused884]
[unused885]
[unused886]
[unused887]
[unused888]
[unused889]
[unused890]
[unused891]
[unused892]
[unused893]
[unused894]
[unused895]
[unused896]
[unused897]
[unused898]
[unused899]
[unused900]
[unused901]
[unused902]
[unused903]
[unused904]
[unused905]
[unused906]
[unused907]
[unused908]
[unused909]
[unused910]
[unused911]
[unused912]
[unused913]
[unused914]
[unused915]
[unused916]
[unused917]
[unused918]
[unused919]
[unused920]
[unused921]
[unused922]
[unused923]
[unused924]
[unused925]
[unused926]
[unused927]
[unused928]
[unused929]
[unused930]
[unused931]
[unused932]
[unused933]
[unused934]
[unused935]
[unused936]
[unused937]
[unused938]
[unused939]
[unused940]
[unused941]
[unused942]
[unused943]
[unused944]
[unused945]
[unused946]
[unused947]
[unused948]
[unused949]
[unused950]
[unused951]
[unused952]
[unused953]
[unused954]
[unused955]
[unused956]
[unused957]
[unused958]
[unused959]
[unused960]
[unused961]
[unused962]
[unused963]
[unused964]
[unused965]
[unused966]
[unused967]
[unused968]
[unused969]
[unused970]
[unused971]
[unused972]
[unused973]
[unused974]
[unused975]
[unused976]
[unused977]
[unused978]
[unused979]
[unused980]
[unused981]
[unused982]
[unused983]
[unused984]
[unused985]
[unused986]
[unused987]
[unused988]
[unused989]
[unused990]
[unused991]
[unused992]
[unused993]
!
"
#
$
%
&
'
(
)
*
+
,
-
.
/
0
1
2
3
4
5
6
7
8
9
:
;
<
=
>
?
@
[
\
]
^
_
`
a
b
c
d
e
f
g
h
i
j
k
l
m
n
o
p
q
r
s
t
u
v
w
x
y
z
{
|
}
~
¡
¢
£
¤
¥
¦
§
¨
©
ª
«
¬
®
°
±
²
³
´
µ
¶
¼
½
¾
¿
×
æ
÷
ø
och
##s
en
att
som
är
av
det
på
för
med
till
##en
den
har
##a
de
jag
inte
om
ett
##-
##t
var
han
men
finns
##er
så
–
##e
ingår
man
familjen
”
från
##n
inga
of
vi
kan
släktet
beskrevs
underarter
listade
sig
life
catalogue
##ar
när
under
år
##na
ska
ut
efter
eller
nu
du
##et
vid
##i
in
hon
där
##r
då
hade
ha
över
##d
upp
sin
säger
mot
också
även
andra
vara
här
kommer
sedan
skulle
bara
två
får
fick
vad
hur
##de
blev
alla
mycket
än
mer
##erna
vill
första
blir
få
##o
först
ju
mig
...
##art
bra
ta
detta
många
##us
lite
del
sverige
går
mellan
något
sitt
utan
bland
genom
enligt
någon
hans
min
se
tre
annat
allt
bli
the
##an
vilket
varit
gör
##arna
##:
sina
nya
kom
göra
fram
##k
några
##ia
procent
svenska
måste
dem
##ade
stor
ligger
samma
flera
tidigare
hela
dock
ni
själv
##m
barn
helt
ny
stora
##are
olika
##in
inom
##talet
dag
ser
##at
##g
##es
##y
tid
innan
kommun
vet
##is
denna
ingen
##h
kanske
väl
##se
född
##or
##ta
samt
namn
kronor
##c
gå
rätt
##p
senare
både
##l
tror
honom
##ande
redan
dessa
##ad
gjorde
tog
fått
tycker
ur
stockholm
gick
eftersom
##ing
tar
##f
ja
##um
hos
kunde
##b
##man
mest
usa
ge
##re
##ning
per
000
kunna
död
ger
dom
fjärilsart
oss
sätt
just
göteborg
##ens
aldrig
svensk
meter
15
åt
sen
ner
fyra
10
tvåvinge
##nde
hem
16
väldigt
##ts
##on
gång
dig
mitt
bättre
##as
ofta
eu
##v
miljoner
tillsammans
runt
samtidigt
par
nog
idag
fall
be
..
folk
igen
tv
plats
##da
varje
grund
sa
större
deras
annan
står
mindre
20
gjort
hennes
sex
personer
skriver
tillbaka
exempel
bort
17
mål
fler
blivit
tiden
havet
alltid
före
komma
##z
trots
##ensis
gäller
människor
började
ändå
fem
ca
därför
##kvadratkilometer
haft
lika
##des
kvar
la
säga
##la
an
inför
inget
##2
sade
liv
dess
##ii
dessutom
bästa
bo
##ata
##iska
året
behöver
början
lag
största
riktigt
vår
fortfarande
al
fast
##rinningsområdet
problem
##u
medan
arten
##ra
##ma
ännu
##ne
##le
film
sista
and
##el
sjö
12
fanns
lång
henne
slut
##x
handlar
##bredningsområde
senaste
el
##te
bil
stort
vann
##al
längre
artens
nästan
##ella
visar
länge
vatten
er
fel
##son
egen
båda
14
##berg
svårt
##j
förra
gamla
vissa
väg
maj
varför
alltså
skall
innebär
ned
##idae
musik
##it
13
små
val
vidare
mat
2010
hand
vilken
##ig
##be
to
##os
##ska
polisen
gällande
nästa
hög
staden
hjälp
skalbaggsart
direkt
form
30
mina
##het
mars
##sk
11
hemma
känner
håller
pengar
utanför
enda
kring
2009
insektsart
gången
januari
låg
din
invånare
istället
##ch
all
gånger
landet
ville
framför
kort
vilka
precis
sett
frankrike
carl
cirka
ibland
känns
nytt
bor
minst
själva
2008
totalt
tio
skrev
ganska
nära
juli
spelar
släkte
åren
new
##ton
klart
##ter
såg
delar
##ed
##iga
##w
hoppas
långt
lätt
dagar
verkligen
bakom
gått
juni
land
18
liten
europa
jobb
nej
##ge
2011
världen
von
##ina
april
borde
namnet
ytterligare
spel
##sson
september
spelade
##st
sveriges
börjar
tredje
##tal
flesta
frågan
##ca
hus
son
består
december
##ica
gav
regeringen
25
menar
slutet
heller
endast
os
##ner
fri
person
##land
##4
augusti
bi
##3
ihop
filmen
http
oktober
##://
november
##by
kommunen
kvinnor
års
##ium
stekelart
##lig
stället
verkar
##ka
omkring
brukar
spela
sten
2012
bild
köpa
särskilt
2006
vm
faktiskt
hel
egna
å
##ja
typ
john
bok
100
2007
re
le
huvud
dagen
området
fråga
tur
miljarder
tack
##avrinningsområde
hålla
därefter
snart
##för
februari
bör
’
johan
pris
##ut
därmed
sagt
tagit
säsongen
barnet
ord
##ligt
ute
antal
veckan
egentligen
ab
våra
##é
ordförande
länder
amerikanska
jo
kultur
##ns
företag
god
mannen
##liga
##bo
sitter
gärna
##ell
va
tillhör
sju
sjön
saker
helst
används
män
samband
däremot
sidan
emot
åter
poäng
##1
norra
ex
##ly
minuter
steg
kul
främst
tyskland
varandra
##ke
kr
##der
äldre
far
tri
peter
stöd
19
##ningen
##com
##igt
##ic
hitta
rad
socken
50
stod
roll
karl
södra
extra
svar
stad
##ea
dagens
liksom
match
använda
vecka
di
##di
högre
månader
ungefär
vem
##isk
livet
21
kl
mor
snabbt
beslut
kommit
22
gott
stockholms
malmö
högsta
skolan
##ex
##th
veckor
annars
mark
km
anders
matchen
##ström
##sta
em
##kr
anser
tag
via
##om
mamma
2005
##ius
kilometer
berättar
##oides
tro
tt
for
kör
##orna
regionen
president
växtart
spelare
##ga
heter
co
bäst
delen
enkelt
skriva
##sjön
24
känd
##-19
##aria
##em
fin
##id
sol
##ur
van
me
kallas
##va
23
##osa
##me
dra
grupp
##men
språk
exempelvis
tänker
tyska
göteborgs
satt
2004
arbete
para
börja
##ol
2000
dit
möjligt
##atus
frågor
kallar
inne
rum
unga
visa
lilla
##aren
lars
tänka
con
barnen
anna
##co
##ningar
##to
ben
jan
låter
sak
parti
vägen
åtta
polis
djur
lämna
politiska
##erade
london
drygt
kallade
kina
läs
##mo
alls
söder
ifrån
##ul
##tus
liknande
viktigt
stå
betala
york
årets
##ion
laget
martin
##ula
##ling
vattnet
gillar
konst
universitet
igenom
rör
fredrik
##ck
lägga
antalet
visst
matcher
40
halv
mil
timmar
partiet
kyrkan
guld
län
sommar
visade
sådan
##ir
maria
##ering
övriga
##www
##lin
svart
##il
##mar
bilder
vd
##ro
##spel
##ie
2013
##hus
försöker
skol
världens
##eri
lever
erik
fan
använder
sub
br
samman
##lag
händer
pa
##ana
norr
##6
västra
##sen
##alis
jämfört
##den
band
##ger
lo
boken
historia
syn
##no
förutom
gp
##pa
super
huset
##5
åka
or
plan
hör
ar
##ler
david
am
ljus
familj
radio
fortsätter
miljö
26
församling
brott
##var
resultat
##ist
##ades
sida
27
william
pro
ro
##gren
bar
gammal
li
##val
låt
##ti
fort
##ers
skog
by
ansvar
tidningen
##_
amerikansk
oftast
eget
ren
företaget
norge
##ce
franska
##ier
bilen
iucn
##ni
2002
##gen
my
socialdemokrat
betyder
kvinna
##era
2003
uppsala
johansson
säkert
28
försöka
slutade
##rum
paris
thomas
no
##ff
sätta
lär
numera
internationella
st
##lar
dotter
##kar
berg
viss
långa
do
##tes
paul
arbetar
pappa
##go
200
politiker
he
go
vanligt
når
dollar
kväll
##ik
kategoriserar
##ba
andersson
bank
ton
##tjärnen
pseudo
professor
bygga
500
serie
tidigt
veta
verk
färg
29
engelska
topp
förslag
##ae
klara
##ph
##ry
te
världs
da
slog
förekommer
jätte
2014
nord
föräldrar
full
ap
skapa
lyckades
tal
sommaren
##ten
vårt
##del
landets
nuvarande
flyg
##sch
##do
##ha
stefan
råd
chef
massa
##bi
gruppen
##tor
nattflyn
sådana
##ö
valet
energi
ytan
##mer
innehåller
##si
tänkte
strax
morgon
höga
krav
fungerar
##ism
finland
2001
ledde
läsa
italien
verksamhet
##opsis
arbets
ad
san
daniel
deltog
håll
lämnade
vilja
skrivit
väntar
bas
bandet
spindelart
departementet
försök
kontakt
klubben
##én
##ste
skillnad
george
klockan
fortsätta
robert
klar
##li
sam
kolla
euro
fotboll
##tar
månad
bolaget
##ura
##aceae
gud
as
mätare
bak
##iana
vård
författare
förstår
beror
starkt
tips
##odes
##ernas
tanke
hårt
ej
danmark
mar
åker
ekonomiska
mitten
svampart
östra
ryssland
drog
ö
viktig
räknas
borta
hittills
köra
##nings
kantonen
lagen
##ri
##bar
seger
##sten
##vis
dog
kon
risk
##ber
neo
jul
##ko
##mat
bad
stark
nå
##mark
utveckling
alexander
globalt
höll
31
natur
känna
mestadels
##upp
on
tyckte
information
såväl
ålder
##ver
reproducerande
bilar
##ken
##vi
bilden
nån
##tra
kända
sand
ne
absolut
england
sm
stil
vanliga
##sjö
system
##arrondissementet
jobbar
program
leder
slag
vapen
##ei
låten
mo
enbart
brittiska
stan
##io
post
##ot
kraft
möjlighet
##lund
följande
start
uppdrag
you
##tiden
vinna
samtliga
##vin
sker
militär
1999
gift
välja
##oc
##ans
##un
dels
talar
ditt
##ley
##lo
hit
1998
kung
låta
##ren
beroende
so
##ve
centrala
smhi
olympiska
betydligt
samhället
ko
igång
##ine
lund
tyvärr
ram
nio
tänkt
##mål
:)
....
betydelse
skit
jobba
högt
##rätt
köpte
fjärde
vänner
##=
bl
makt
brev
##erad
flyttade
area
natten
uppgifter
##ån
trodde
art
björn
blå
##och
speciellt
ek
60
sjukhus
område
utbildning
##ops
kände
riket
fn
hjälpa
##å
straff
##verk
sådant
dags
pe
anställda
storbritannien
##8
växter
##ker
##je
vita
sport
trä
roman
ensam
##ria
resa
långhorningar
kunnat
bär
jobbet
drar
ryska
poly
bro
##stad
ung
##ring
##gatan
##åringen
lägre
svt
dåligt
köp
##iella
kyrka
##ov
europeiska
stads
ekonomi
league
albumet
brand
närmare
##ny
hösten
igår
lägger
##itet
varav
börjat
serien
##icus
öppna
leva
kroppen
kvinnan
kostar
gustav
goda
rock
kräver
volvo
tvåhjärtbladig
fina
##les
su
vore
kol
##&
glad
##iskt
finnas
##dy
album
ledare
snarare
respektive
##fi
vit
dans
priset
ökade
vin
1994
framtiden
krävs
##lös
karriär
medlemmar
spelat
uppströms
flytta
uppger
sp
##ant
kallad
intresse
problemet
period
general
fullt
##7
försökte
japan
tom
ordningen
ber
kritik
1992
henrik
älskar
text
tysk
##bil
1996
väljer
not
studie
öster
##årig
fängelse
valde
saab
social
na
ställa
##rus
##borg
at
behov
vattendrag
medelhöjd
trafik
##ation
följer
ok
arbetet
platsen
områden
vattenytor
mon
gett
##gg
##kan
##ala
##form
1997
sjöprocent
teater
fru
fi
1995
##nes
anti
##ac
självklart
hot
can
följd
fortsatte
christian
##op
##gruppen
spanien
##erat
##len
magnus
knappt
centrum
red
förstås
sk
##sam
##im
haha
##plan
ed
sociala
viktiga
jonas
vänster
##hl
ön
##q
kriget
70
släpptes
##ster
##za
världskriget
prata
##dal
öka
våren
icke
väst
##ci
vän
fjol
känt
projekt
gräs
äta
följa
ljud
##sh
natt
ökar
##av
målet
slå
höra
böcker
lärare
internet
klass
##ros
##huset
city
längs
larsson
förstå
skönt
satte
­
##plats
##tur
alldeles
anses
##sordning
##tz
byggdes
osv
alternativ
dina
allra
nämligen
sven
startade
##lan
salt
fotbolls
dator
po
final
##ola
michael
lära
modern
säsong
##min
norska
fiskart
##cy
##nus
ver
vanlig
marknaden
jord
##bok
industri
rom
##ze
orkidéer
luft
##od
röd
1993
röda
ledamot
##årige
bildades
##ty
utgör
ses
nyligen
##ian
inlägg
berätta
snö
viktigaste
james
##ett
anledning
jean
resultatet
##bra
berlin
övrigt
hittar
svd
##ör
##pe
nivå
wilhelm
spår
klubb
kräftdjursart
1971
katt
skäl
saknar
sälja
vänta
##aste
behövs
resten
borg
ökat
privat
bit
perioden
##ard
saint
charles
##ek
national
bygger
1991
motor
lokala
##band
kläder
##ats
car
hej
##ys
användas
1990
motsvarande
ingenting
arbeta
sent
tillräckligt
plus
personal
##mus
bolag
häst
vinst
##ida
##ita
hall
##am
nilsson
##tis
##nas
fallet
##cus
ph
bur
material
##sel
80
max
skola
samarbete
her
##ret
tydligt
staten
press
nätet
vinter
rent
besök
##serien
sch
åkte
##system
##eus
bror
uppgick
##åriga
byta
flödar
döda
##mi
##hem
pengarna
roligt
fa
skott
##au
we
öst
dam
åtminstone
finans
scen
olsson
led
lyckas
chans
lokal
gu
##he
spelet
politik
##omyia
plötsligt
kris
biflöde
##nar
pre
undan
##chi
##con
lind
utifrån
helgen
sätter
rädda
##ense
såsom
orkidéart
arbetade
##chef
undrar
danska
svampar
förlorade
##ini
säkerhets
kontroll
##slag
##bro
##ino
pass
central
omfattande
##else
lät
ordet
##ets
##tt
hundra
hört
##ki
forskning
glas
300
behöva
aik
sluta
##up
sällan
praktfjärilar
##holm
vart
samtal
##ec
cup
sång
platser
nåt
nummer
medel
oavsett
höger
##ingen
ac
klassen
hälften
gas
leda
##icola
1988
intressant
##heten
ka
dubbel
illa
publik
eld
ligga
##ok
fint
##gi
relativt
huvudet
##gel
framåt
starka
##ey
##program
blod
yta
sal
utvecklingen
friedrich
titta
någonsin
köper
varken
##vattnar
exakt
af
visat
väster
samhälls
tolv
##ifolia
föll
—
medlem
##yl
stats
##år
##par
1989
##äng
ku
don
bygg
litet
kvällen
##fall
tala
hår
tåg
slags
tränare
35
regler
micro
ungdoms
##tan
fokus
##är
silver
svarta
##ben
1980
höst
back
august
dn
ledning
kalla
nöjd
hänt
##ven
våld
##cia
svår
djup
##ras
##ister
ske
##rinningsområden
1800-
gränsen
##ax
##mann
##nia
##vik
sitta
##sp
tas
##ran
troligen
bidrag
krig
fortsatt
avtal
##ris
smith
klarar
lista
ts
mal
henry
joseph
##ud
##ment
##liv
##fors
minska
##hr
un
##okparasitsteklar
användes
1987
riks
situationen
antingen
utredning
1986
räcker
400
ända
kommande
boende
ställer
ont
##ps
favorit
##bolaget
erfarenhet
##lis
##yn
##skolan
princip
##mm
hittade
lättare
##cha
budget
iväg
läkare
##skap
filmer
richard
ögon
lämnar
ban
datorn
tu
##gar
stund
värde
der
##rad
##20
programmet
##iidae
1984
##området
##lösa
litteratur
sjuk
##let
elever
tävlingen
slår
##tid
regering
mera
olje
##per
beskriver
avgörande
mikael
uttryck
ovan
skådespelare
1974
ungdomar
premiärminister
grand
90
prov
bio
räknar
andreas
##ham
senast
beslutet
delvis
##mon
##ong
si
bu
studier
tycks
park
##iv
yngre
##van
jävla
pan
marie
intervju
fågel
kontrakt
##onia
ho
tanken
dålig
persson
uppgift
ki
##atum
##dd
dan
teknik
##dag
grupper
delstaten
lägenhet
kraftigt
##rar
##illa
##fin
svenskt
valt
politisk
sist
premiär
visste
skatt
strand
befinner
##mb
##san
risken
fisk
sämre
handels
1979
författaren
##don
epi
röst
45
louis
låtar
county
skåne
skapar
passar
främsta
tänk
okej
##ang
alkohol
west
livskraftig
##ju
hund
fil
##10
##ya
##han
##bin
ana
tillstånd
grekland
ägg
förbi
skatte
funkar
möte
##wa
testa
obama
väntas
smak
##du
brun
blogg
1976
1985
kar
##jo
högst
mag
mac
##tre
##led
krigs
tillväxt
##ou
växer
mord
1983
et
verksamheten
örebro
medier
gräns
##rna
1982
karlsson
skador
pressmeddelande
söker
situation
syster
cm
betyg
gi
ursprungligen
någonting
##blad
##age
mår
järn
mm
dal
##till
konstaterar
normalt
närheten
mc
##ron
love
snabb
ra
köpt
##0
körde
##sia
vice
läget
telefon
drag
lyckats
pappan
hu
eva
otroligt
mobil
hård
riksdagen
ke
tids
söka
bodde
ring
1972
skedde
##ville
##grupp
##ip
1970
1968
##ung
pi
cor
kvartalet
föddes
##spelare
hamnar
##one
arter
inter
if
1981
människa
##off
##su
kärlek
tittar
##med
mats
##din
vunnit
##70
##vägen
växte
##nor
##gång
1952
månaden
moderna
tak
##60
säker
hotell
undersökning
ba
jorden
ärtväxter
##...
##ho
data
##nis
##tion
fest
ström
##ill
israel
sånt
##laget
iaf
divisionen
##dra
naturligtvis
1967
##iensis
##kort
mängd
##fa
syd
facebook
standard
##kor
ce
grön
##por
gustaf
ti
total
knappast
##ndet
##näs
1977
rapport
finalen
##po
linje
idé
frukt
hävdar
##gan
##9
ordning
1960
mode
rädd
relation
##so
äter
1962
reda
dagarna
##ow
##index
hantera
hopp
spelades
##tri
##est
##isering
##?
##que
läser
studerade
nät
foto
förhållande
simon
eriksson
grad
ställning
nådde
##kon
bevis
kommentarer
öppen
##40
botten
följde
##che
grundades
##kt
1973
##lade
us
mesta
ru
skogs
kommentar
1969
##åring
vare
träd
lön
rapporterar
försökt
rekord
livs
##50
lösa
ze
##qvist
förmodligen
snus
pratar
division
allvar
##ord
special
lycka
kunskap
##ng
kropp
1978
titeln
styr
##guld
##fri
träffa
buss
##tum
test
##vo
spännande
läst
fart
funktion
tecken
förrän
debatt
##zi
lämnat
fot
grav
bakgrund
inre
vitt
möjligheter
##á
##dor
##tin
##dia
##ipennis
##råd
1975
ras
##pris
united
familje
##ob
ma
oro
vikt
näst
##net
takt
musiken
##lu
rot
privata
historien
ag
##tväxtart
design
cykel
avled
sönder
sonen
mel
kinesiska
överens
lager
polen
arm
johannes
gul
håkan
lagt
nationella
##+
forskare
##-18
bostads
hemsida
texten
schweiz
närmaste
##företag
modell
lös
funnits
tryck
äger
misstänkt
1964
italienska
klimat
göran
1910
##sur
long
war
nor
dvärgstritar
försvars
ter
service
##äck
närmast
öppet
systemet
fredag
togs
ägare
pin
75
fransk
tor
##ah
kommuner
##väg
mont
##gas
kor
berättade
mån
förut
##priset
gifte
vuxna
bomb
##bas
university
byn
##rik
miljon
publiken
arean
metall
riskerar
framgång
undantag
perfekt
minns
##ipes
hörde
##lat
##tro
biart
##vård
op
dia
1965
riktning
grå
tjej
##tu
mur
miss
landskommun
kors
annorlunda
georg
starta
##ice
ges
värld
##gon
banan
politiskt
sikt
männen
##bor
dela
##pan
använde
tillgång
nått
##ani
##tia
elva
##brott
meddelade
frölunda
ersättning
www
##wi
##skydd
32
##uk
indien
visserligen
##djur
spanska
belägen
gran
regi
ifk
kungliga
za
städer
ishockey
student
##område
##30
ga
solen
##red
marken
må
live
stift
regn
lördag
cal
##bild
rättigheter
höjd
world
kanada
los
chansen
mun
##80
församlingen
gjordes
##ismen
träning
##bolag
tvingades
lösning
pågår
pop
emellertid
åtgärder
läge
##ix
växt
lån
real
fred
##................
otto
söndag
handla
grader
##talets
##dagen
förklarar
trött
bracksteklar
undvika
herr
##met
1912
##mor
satsa
dröm
stadens
nyheter
ann
##förbundet
out
stanna
33
##ez
com
lek
ekonomin
afrika
samhälle
ch
armén
svåra
##sidan
2015
##ak
ägde
hände
bruk
1914
##pp
##klass
pr
befolkningen
värd
##serie
##vall
##gu
skiljer
utveckla
##osus
##mia
##ings
mening
femte
säkra
##ophora
forsknings
1966
måndagen
##res
möter
##banan
hittat
kaffe
##ap
##dan
plast
köpenhamn
tvingas
nils
lill
chi
##ota
omfattar
värsta
räkna
lat
##ü
spelas
döds
##we
##11
verket
ekonomisk
kapital
that
bred
##ram
aktie
känsla
wall
båt
ingick
skär
vintern
hamnade
##gård
villa
svenskar
gar
##24
idrotts
svara
barcelona
skicka
konstigt
svensson
media
version
ledande
värt
ursprung
##film
hockey
##gården
lu
##bara
##jan
raka
##hi
kim
##ator
thor
##ulus
port
##fl
effekt
enskilda
tankar
##ern
adolf
föreningen
organisation
analys
##hn
axel
möta
##zon
lett
grekiska
föräldrarna
uppe
vo
imorgon
1945
edward
hål
fo
betalar
##rin
olof
tusen
tråd
trans
##stedt
makten
timme
65
personen
projektet
##systemet
bestämt
delta
syrien
##ön
äntligen
tjänst
förlust
au
perspektiv
1913
äldsta
##ther
fria
lin
walker
##bus
svarar
flockblommig
skada
##löst
tråden
ledningen
##arnas
sim
tillhörde
##ev
##ski
hy
kur
albert
##ug
##elia
mi
##strand
myndigheter
aktiv
##mannen
##kel
##tel
dåvarande
etc
##og
transport
förslaget
nhl
##nu
island
koll
1911
cha
driver
##politik
andre
##håll
faktum
innebar
mötet
vind
“
stoppa
hov
storlek
utom
dansk
1963
punkten
hjälper
##vm
regerings
##ab
##rid
advokat
1939
##språk
singel
##her
1900-
stycken
##tic
offentliga
syns
##programmet
helg
rök
sidor
black
1938
##if
##istiska
moskva
organisationen
australien
tra
150
anton
kvalitet
##.30
vattendraget
sammanhang
##anthus
ständigt
framförallt
kungen
allvarligt
##verket
brasilien
sjukdom
stämmer
yrkes
sekunder
##far
##ll
1990-
avsnitt
##sin
star
##ledare
##ru
##lopp
kunder
sambo
utöver
macro
flicka
1908
##sgatan
byggnaden
oslo
sant
kändes
ry
1961
reklam
flertal
kvinnliga
fungera
##car
gratis
tim
##cher
ovanligt
sannolikt
arena
##ander
fält
##bit
##ceae
positivt
##namn
besked
##tiska
slutar
##anus
##ika
disk
syfte
dr
1920
ringa
with
lade
##skola
kött
tekniska
nä
##har
minut
##lit
hänger
kall
1970-
österrike
morgonen
##ity
##chefen
ökad
tydlig
havs
säljer
##ins
##ep
värme
36
tour
1940
gra
sammanlagt
rakt
##vel
und
meta
##lighet
väder
##eg
egypten
statliga
##pass
förklara
iran
kamp
34
##my
##hu
bal
språket
mus
skuld
dvs
spara
fakta
##19
fyr
##lia
ulf
##í
härad
1956
##tör
##mans
spar
utländska
behandling
ansåg
##pen
allmänna
förbundskapten
slaget
tex
ste
##män
lappland
pu
##ost
##marknaden
##över
korta
saken
föremål
##aea
kallades
karin
hända
denne
are
##90
##iz
pil
skolor
fredagen
cer
svarade
1980-
reinfeldt
planen
holm
regeringens
extremt
verksam
alltför
1900
##rådet
##ér
skivan
washington
gemensamma
1958
##hand
##inus
video
##köp
rosa
verkligheten
nr
##växter
##18
ackumulerade
planer
gunnar
oklart
spelarna
umeå
läns
gäst
##minister
rätta
skickade
##verksamhet
bestod
##rörelsen
presidenten
##ford
synd
zlatan
multi
##erar
måndag
##rat
tjejer
##världen
planet
källa
##dom
normal
gen
hämta
##erande
##the
försvann
ris
##oni
##.00
ty
##ä
riktig
##lor
37
##lon
1936
1907
bel
##ort
##ona
behövde
frågar
sund
greps
påverkar
historiska
öl
bollen
##satt
saknas
##23
johann
kust
mamman
säkerhet
##departementet
oerhört
##pi
tillfällen
##ft
sta
600
kompis
##mp
##hy
frank
jakt
1924
gröna
##andet
skapade
1909
##iserade
affärs
##bb
ändra
wa
soldater
inflytande
regel
##stra
enkel
bergs
##12
##växtart
##ocera
länderna
##35
##grupper
##träd
skaffa
##pro
hälso
närvarande
##000
inträffade
tidiga
skull
folket
förmåga
produkter
##las
färre
ya
##tryck
platy
1906
förutsättningar
listan
##lagen
nere
försäljning
##vatten
levande
framtid
massor
magen
1926
die
position
##barn
oscar
stål
lena
myndigheterna
##sätt
##lov
bri
1950
läste
dö
1917
##mal
##idia
mänskliga
ak
fe
sommarspelen
låga
fors
färdig
##all
bengt
värre
pga
1959
styrelse
##escens
##ag
brachy
800
dalarna
grov
positiva
skydda
##vit
kille
människan
##,6
liga
eleverna
heinrich
kön
löne
##nen
återigen
rätten
väntat
##ach
##45
mad
mängder
förtroende
##branschen
driva
sy
ve
pekar
träna
arg
lyssna
ol
domstol
strid
sättet
hustru
tisdagen
##jer
häll
##eu
känslor
international
##mma
1933
1957
##ø
utredningen
sägs
fl
orten
torsdagen
##ifera
påverka
onsdagen
1941
inledde
givetvis
grunden
cat
släppte
1930
##kin
begreppet
##ies
1928
stress
2000-
skadade
kalmar
##mil
##ides
turkiet
gemensamt
gavs
katter
##staden
efteråt
1960-
##bel
resor
38
snitt
möjligheten
1918
##.000
kval
mu
tider
motstånd
vända
1925
ordentligt
ämnen
##hög
wi
dåliga
bf
handlade
klassiska
##frågan
1929
uppmärksamhet
##medel
1927
nordiska
blom
användning
##hall
gård
kristna
kvinno
##idium
tycka
orden
syfta
##zo
1948
1944
slutligen
##syn
intill
kyrko
green
finska
##nivå
##ledaren
taget
gemensam
skillnaden
##pha
sova
##-15
bud
##ges
förr
##partiet
##kraft
landslaget
dor
bladmoss
lugn
ep
afghanistan
verkade
##fråga
behålla
internationellt
arbetat
artikel
förändring
medicin
bestämde
##ban
restaurang
tele
##lid
##inge
ställde
1953
##-14
fritt
ask
sjukhuset
mega
internationell
francis
majoritet
##icum
##företaget
mass
desto
vågar
billigare
svårare
fönster
1932
olyckan
brittisk
1919
förändringar
##ila
##bu
dar
##problem
1934
vanligen
händelsen
hette
former
1916
sköt
segern
1921
1905
hälsa
skor
1922
rörelse
##sky
jon
##andra
lik
1915
ev
konkurs
inklusive
fartyg
ludwig
1954
1935
1937
ort
menade
##sberg
##qu
lept
sar
##föreningen
produktion
siffror
vol
emil
hölls
ros
##eln
beskrivs
process
positiv
provinsen
##ich
styrelsen
##iaceae
ställen
ul
rå
##rop
##ast
hästar
##26
era
snabbare
rejält
eventuell
insekter
någonstans
1955
paret
tvärtom
##projekt
papper
##trafik
drottning
##sak
bostäder
set
kap
anledningen
rollen
utloppet
##fe
gäng
jobbigt
##dar
träffade
borås
bytte
utmärkt
##oi
därifrån
ringmaskar
parlamentet
vinner
faller
hamn
last
björnspinnare
##,9
##vor
##75
tydligen
allmän
identitet
##gående
nar
utbildnings
personliga
pierre
omöjligt
##än
katten
dömdes
1942
skriven
hol
sara
up
##tåg
karaktär
ursprungliga
sky
söndagen
brist
starkare
hen
##mont
bryta
officiella
##ij
##ome
statistik
skadades
anne
noll
alfred
status
ligan
skydd
##pol
statens
##på
make
##and
diskutera
norsk
hotad
utvecklas
blad
elit
debatten
svenskarna
lan
##pin
rygg
möjligen
villkor
1931
inkomst
##of
mjölk
1923
höja
##27
##gr
inslag
intresserad
ost
##oma
sofia
idéer
medie
växa
one
##31
struktur
39
##æ
märks
semester
##ighet
##ara
levde
##ora
krisen
##opus
släkt
kalifornien
punkt
##ås
##osoma
öppnade
mångfotingar
##21
avvattna
##orum
funderar
##cker
##28
kam
politiken
##tals
linköping
förklarade
jobbat
##oli
spin
scenen
ericsson
1904
luften
1949
##ologi
##utveckling
region
##01
##elli
oberoende
ting
allsvenskan
gais
##samma
sjukt
1951
frågade
top
##25
##utbildning
##platser
eric
varm
##eli
lägg
tyst
asien
släppa
milan
fly
##skog
fördes
förste
07
utomlands
horn
1947
formula
praktiken
sl
ringde
kvinnorna
delas
ränte
populär
middag
fixa
##linjen
sväng
längst
##29
marcus
tvungen
1943
mörk
huvudstaden
fas
irak
##qui
förhör
administrativ
##industrin
priser
dottern
sär
museet
col
##-16
himla
##drag
##14
typer
##steg
ali
##17
bott
begrepp
skapat
##bruk
kallat
fantastiskt
bill
således
##mes
insatser
##vid
fc
måreväxter
förlag
festival
##ct
bry
försäljningen
##,4
##ib
##lands
alt
företagen
##cc
##grund
##aspis
cap
lördagen
sålde
##16
öppnar
malm
##iae
##-17
##tag
använt
##rör
akut
personalen
##platsen
##48
##ua
slott
metod
betydande
granskning
beteende
minne
tomas
hittades
white
fara
hellre
win
lades
japanska
##uri
##vet
71
helena
##eras
sporsäcksvampar
gris
lepto
kg
universitetet
##landet
##resa
webb
ven
1946
stopp
sur
öde
##dahl
##ira
hjärt
toppen
##läge
##55
ansvarig
sha
uppfördes
1700-
jämtland
##kyrkan
##ligan
55
texter
lust
insats
##gh
utrymme
##ske
##ningarna
aning
lägenheten
##15
##lle
beslutade
##gue
vackra
medborgare
pojke
fredags
victor
luleå
##,1
röster
orkar
##bia
kniv
##ku
##yr
bära
svaret
##kom
1901
springa
##cis
flickan
##jobb
hetero
fadern
cancer
##mässigt
engelsk
dör
småland
pol
##års
jazz
brown
##ari
dörren
rost
antar
mas
emma
##lla
##lä
##ano
madrid
delarna
löv
##klubben
##ting
orsaken
42
ställe
skett
mynnar
##rig
##byggnad
##urus
##sor
vall
bull
allmänt
sällskap
ler
misstag
##fo
##icornis
sj
frågorna
mod
##fil
innehåll
hal
##shi
gravid
kurs
däribland
museum
##39
##äm
##hamn
bilderna
titel
mått
cell
därpå
##som
##13
bensin
bröt
studenter
deltagare
respekt
##arbete
iii
1,5
##isten
linné
socker
sil
##odon
kombination
militära
slagit
uppfattning
framtida
präst
1903
vasa
helsingborg
stig
ri
may
rena
såklart
lunch
försvinner
återvände
offer
lopp
skid
angeles
pat
rapporten
##aris
rid
##cer
bre
resan
ang
helsingfors
plocka
arkitekt
dödades
##stat
##kov
tros
ham
##ela
##str
ämne
fyller
##38
##08
ekonomiskt
cle
rus
typen
exemplar
##nade
fotbollsspelare
tunga
##ställning
björk
tricho
lugnt
vuxen
frihet
diskussion
##flugor
resurser
måreväxt
##bal
##rade
##optera
ernst
kommunal
önskar
micr
ihåg
che
72
ola
##vikt
roger
skriv
fjäll
kört
styrka
aktiva
##sättning
##kväll
##typ
music
irland
partier
##af
1902
##00
##historia
jack
längd
journalist
romanen
lands
allmänheten
brons
##dis
erfarenheter
##gra
torsdag
harry
##47
åklagaren
##rot
##.1
vägar
##lim
##sida
delade
lyx
##tidae
prova
huvudsakligen
##99
##ider
res
bildade
hårda
##bad
##bert
##bergs
minnes
riv
förbättra
##22
boll
champions
byggnader
planerar
elev
cho
djurgården
passa
portugal
jacob
google
original
totala
damm
nyhets
sydafrika
robin
mono
golf
##cell
fördel
sjönk
riktiga
##71
##akt
bestämma
##04
sökte
rep
##prov
tillfälle
uppåt
bla
avstånd
pen
tävling
will
glädje
##ji
ägna
anställd
from
sd
flyttar
juvelvingar
64
jesus
småningom
civil
musiker
hö
ögonen
##ub
handen
##34
domstolen
1862
redo
##musik
möjliga
snabba
gatan
##posten
verklighet
##lån
amphi
utrikesminister
demokrati
tradition
##ifrån
##ette
1897
700
##oth
thailand
##gör
översättning
mut
hell
lisa
log
misstänkta
##nat
20-
##klubb
minskar
arbeten
##frågor
##nd
sab
##post
tävlings
69
nederländerna
ryggen
##pt
fiske
armé
##37
loss
##teknik
ång
träffar
##cho
arv
äventyr
##blogg
myror
oppositionen
##tter
råder
250
hindra
egenskaper
gällde
tingsrätten
##org
banken
##quist
aftonbladet
##bri
fylla
08
rysk
##33
medalj
liter
gitarr
fjärilar
##organisationen
räknat
ob
je
källor
turist
orolig
minuten
startar
rummet
drabbas
mini
överallt
##ket
guvernör
48
##böcker
känslan
this
reuters
##press
hypo
##95
sorg
studera
##jon
valdes
sn
fu
slipper
legat
##65
66
avgöra
enkla
kilo
##iva
sovjetunionen
ambulans
äktenskap
##besök
##pon
inleddes
##bart
##port
she
ämnet
halva
##bandet
tidning
individer
mattias
but
##heim
tjänster
hed
naturen
adam
was
borgerliga
talade
kal
1890
torr
##slagen
##gor
övre
order
pel
##ble
##mästare
minskat
dokument
kyl
kommentera
##livet
##eringen
##44
##istisk
##36
##dig
##46
tennis
andel
##tica
sankt
tingsrätt
gal
longi
röra
klipp
bon
bredvid
åsikter
##pus
italiensk
##fel
stilla
gården
##färg
##mmer
##bana
##phe
##kat
##und
palm
sv
protest
##listan
##ägare
skogen
bol
olja
##styrelsen
##low
shi
bröst
görs
bestående
hemi
vila
banker
hinner
opera
succé
##fer
##jor
bay
sc
##bäcken
älv
organ
dygn
##kultur
##32
tjänar
##inia
tråkigt
##49
##tisk
libyen
frisk
ökning
##ania
##pre
varmt
rosen
hunnit
##sim
landslags
koppar
vanligtvis
partner
nordkorea
uppgav
##skt
obe
semifinal
fynd
##59
genomföra
hermann
tobias
##samt
förlorat
huvudstad
eventuellt
ff
##ect
allvarliga
##skott
instrument
djupt
själ
troll
rån
förklaring
kortare
##bol
##lus
melan
##årsåldern
reste
syftet
##mos
rymd
vakt
ukraina
johnson
ansvaret
##eo
mes
##match
mol
lagar
##ophila
qu
generellt
stat
växjö
bostad
tusentals
export
street
##yi
omedelbart
skjuta
färger
paus
cre
sas
run
använts
##burg
potatis
comp
king
kampen
kandidat
tjugo
##lik
44
skön
##dens
song
##ale
still
carlsson
##.2
beräknas
mys
kram
återstår
affären
störst
##politiken
dyrt
kompetens
nordöstra
aktuella
melolonthidae
##lad
sån
mötte
såldes
drift
offentlig
beskedet
visas
jämför
traditionella
dis
##polisen
ställt
jones
##zz
grovt
lim
uni
tränar
minsta
##68
##phi
##tha
##ding
##sport
##43
litterär
underhåll
samlade
##bl
följt
tung
påminner
jeans
es
##kläder
gro
populära
lyfta
##stil
##lie
trafiken
##ima
##ior
41
43
tisdag
minskade
byggde
ansågs
torg
debuterade
##tte
kanal
##sm
kläd
nick
finna
fann
##chus
##nt
##fest
ombord
sjätte
antagligen
nöd
##talen
stadsdelen
##,2
##41
syskon
##arbetare
semi
center
##ks
problemen
##vig
fre
konkurrens
produkt
domen
mönster
järnvägs
##gå
rut
familjer
symbol
##56
dras
läsare
kostnader
dyrare
1895
reformer
##09
ple
henri
flygplan
acceptera
kra
artister
##69
centimeter
##kvist
##lott
##yd
förre
##ici
1898
floden
yttre
taket
##stam
##bilder
smör
gre
islam
##nät
##kur
##stein
sorts
big
flytt
audi
##torget
##dalen
stannar
kö
##brist
äkta
motsvarar
helhet
besökare
stänga
bett
likt
47
##07
efterträdde
##ay
##line
hjärta
tomt
våldtäkt
slippa
münchen
##lam
1896
framöver
barb
dl
##nan
##ef
malin
air
onsdag
##stor
regimen
##42
hi
övergrepp
##79
dennes
dragit
##namnet
news
##85
allting
##etta
ungern
filippinerna
förhindra
##iopsis
team
handel
##ledning
leta
calli
times
balans
pension
turneringen
framgår
kapten
station
bebis
##handel
efterfrågan
##57
##hel
##our
por
wil
hästen
##kant
grundläggande
konsert
leif
##älven
rösta
##cor
bord
mix
tränings
doktor
##tik
ytterst
skämt
##lic
fy
manchester
50-
stam
##konst
skrevs
##64
medverkade
##chy
##cke
burk
blommor
filip
aktier
day
mp
68
myr
ky
poliser
hänsyn
häcken
värmland
klarade
##ång
##hol
dialog
professionell
nätverk
argentina
kärn
idén
rik
skellefteå
fat
rund
stjärn
partierna
##låt
utsågs
jakob
politikerna
##its
särskild
est
debut
120
händelser
1600-
mkt
upptäckt
##ellus
##hjälp
##tv
##gs
halmstad
utsträckning
char
##enberg
1950-
peru
killar
marknads
gui
wien
paket
ale
##ledningen
##ilis
organisationer
##cal
torn
##51
block
bidra
grej
67
rose
distrikt
intresset
alb
distans
krävde
les
##vil
og
konflikt
förändra
lov
##rock
rese
nyhetsbyrån
fett
velat
halvgräs
##klar
anonym
målvakt
vänder
##antha
drabbade
##spår
##ance
1899
tyder
kontrollera
socknen
ifall
betraktas
besegrade
loppet
bankerna
##bet
officiellt
##alia
##liknande
##ljus
skiva
priserna
##holms
grundade
produktionen
styra
##rea
presskonferens
##visa
tydliga
varv
;)
##bron
butiker
##heter
köns
gävle
planerade
detaljer
tappade
##iflora
polisens
cl
döden
vanligaste
norden
ansiktet
twitter
open
definitivt
uppgifterna
46
handling
ordinarie
gränser
bin
synnerhet
##ox
sängen
kosta
macr
##cle
play
cu
byggnads
handlingar
nattslände
##gus
american
universitets
farligt
maten
erbjuder
fundera
jämförelse
tacksam
säng
junior
gor
näringsliv
kräva
##ställ
front
oxy
knä
chile
##ial
neu
spindeldjurs
63
##tas
##58
västerås
gjorts
gram
skalbaggar
fattar
##kriget
argument
##78
sun
lee
th
norrköping
initiativ
##iceps
väntade
##värde
py
erbjuda
underart
inomhus
artist
liknar
storm
modellen
elitserien
patienter
show
phil
knut
kropps
gruv
kronan
lotta
trist
nyckel
##-2
##parti
angående
motiv
tetra
##bolagen
hoppa
stått
berör
ari
##givande
företrädare
##wall
misshandel
iallafall
##ulata
element
utvecklings
försvaret
hv
##nell
##erades
sir
lunds
##liggande
utgjorde
religiösa
gabriel
ci
bestämmer
kommunala
reglerna
##tidningen
##start
##eriet
##klassen
möten
##sal
uttalande
##ó
##trafiken
enklare
##rö
hålls
##nummer
##lärare
kommunerna
ski
time
##77
befolkning
flyttat
pall
ideal
leuc
1893
soc
##03
sök
dol
sömn
ud
##,0
byggt
snygg
trevlig
##produktion
prins
gräsart
##iformis
##ema
lyssnar
bränsle
##äl
##idi
##gin
##flyg
1889
holland
trich
##ordning
##förening
##ova
73
fordon
södertälje
hann
##möte
grann
##cin
teatern
##skor
åh
##ope
##dagar
expert
återfinns
beskriva
historik
##ms
förhoppningsvis
williams
fack
artiklar
##phy
##lea
föregående
pakistan
oxå
##kanalen
##eby
snyggt
##det
samuel
##afp
north
trav
az
kontor
baserad
ahl
miljöpartiet
##spar
eury
30-
##stig
mary
utrustning
ker
rådet
gustafsson
##ld
samla
utseende
trygghet
berättelsen
lax
mos
pha
slottet
index
konsument
##ney
lindgren
##num
undersökningen
bröd
arbetsmarknaden
##lista
##field
ferdinand
flest
medarbetare
allmänhet
lennart
talat
##pis
##esia
götaland
prot
##ocephalus
##ssa
philip
vände
gren
naturligt
ore
##under
locka
uppstår
##76
urban
peri
biskop
pensions
pseud
gr
zi
ihjäl
johanna
lagom
##opa
##slaget
1894
##pel
upptäckte
49
formen
bet
pra
##-1
kritiker
bru
försvar
lant
juholt
christer
fiskar
##89
bern
1892
operation
##86
kent
##skatt
gon
andré
trivs
##loppet
skydds
victoria
##tjänst
##viken
larm
barack
segrar
##eb
hammarby
##chia
##isterna
oj
##98
##tr
##släktet
##for
journalister
tand
##hot
##bilar
##gran
##pho
amp
##chen
fun
##sol
##inen
negativa
rättegången
flod
ikväll
pri
infördes
##ingar
##backen
dyker
placering
##lander
ford
billigt
##97
##avtal
besökte
försvara
fungerade
räddningstjänst
kund
terror
utrikes
rest
##material
##holmen
beskrivning
##66
framgångar
sjuka
85
pet
1:
tillfället
70-
sänka
tvåa
##fält
humor
52
lågt
flygplats
landsting
rött
brevi
##teatern
##lt
tränaren
släppt
##ight
##sti
##stjärnan
branden
##torn
##61
##ive
påpekar
kyrkans
alliansen
bbc
##uli
##spelet
affärer
##test
##-13
cd
##lokal
##dr
inspiration
marin
##kör
träffat
blandning
bnp
hill
##kontroll
##valet
spe
##ifrons
##lön
relationer
dum
ps
hörn
gårdagens
näs
##områden
pojken
linda
inriktning
jonsson
##67
##kommissionen
##seger
##tjärn
lock
hänga
luc
ran
##nad
1891
##position
golvet
##lys
good
##hopp
dy
bildar
##så
pratade
##sy
dj
civila
##marknad
bonus
80-
ä
stannade
##fiskar
tron
metal
seb
bakgrunden
##ien
maskin
varierar
pip
##ull
hyp
svag
jordbruk
sändes
arabiska
mandat
innebära
##spindlar
sor
##kal
nato
́
låna
##organ
intressen
engagemang
##centrum
lördags
1870
##mur
##stöd
egendom
##53
##schef
pachy
auto
##06
processen
ursäkt
franz
##fabrik
##mel
våg
göras
##leden
tidningar
##54
dahl
bidrar
##05
mexiko
##back
informations
breivik
##hallen
##delar
dricka
hyra
agera
##87
bat
taxi
##boken
berättelse
##ländska
suttit
zon
mir
examen
teori
sträcker
maken
bron
##uch
brister
##alt
investeringar
viktor
##ré
1888
windows
siffrorna
röka
##demokraterna
katastrof
##ical
patrik
##ary
mästare
utomhus
miljard
best
##bat
bandy
institutet
söt
halvlek
##hål
frö
ställs
invigdes
##lö
föreslår
parasitflugor
##osia
genomfördes
fantastisk
##jev
fastighets
framstå
verktyg
##rummet
##sman
börs
scott
aktuell
##elius
fokusera
koka
flickor
lök
kost
##ele
utvecklades
bransch
##rit
thi
##88
##try
pröva
vetenskapliga
1885
posten
##åt
kod
fartyget
hushåll
personligen
analytiker
nas
befann
##län
kungsbacka
##81
gall
intresserade
doft
##hed
omsorg
##dals
rak
myrart
niklas
täcker
##way
ken
småharkrank
##skan
figur
ytter
införa
företags
förhållanden
köket
rödgröna
trend
drama
fond
sångare
sårbar
##ence
##tom
charlotte
##organisation
##ophyllum
guds
##è
coll
90-
arbetsgivare
##62
anfall
##ux
tolkning
sko
valkrets
cy
käll
kasta
##stan
##längd
vinnare
glada
sov
stärka
kull
##matchen
omgången
konstatera
forum
##värd
upplever
läkaren
choklad
motståndare
51
##eria
förlora
belgien
konsekvenser
fattiga
kritiken
hjul
porr
##tta
jobbade
##duk
tr
##mis
fp
mörka
fylum
bergen
sug
regissör
reser
##torp
sträng
misstänks
stolt
hamna
records
frukost
ringer
house
theodor
bråk
##mötet
##tig
cecilia
generation
##fr
bibliotek
myndigheten
umgänge
kraftig
sjunger
ly
medlemmarna
tidig
hor
kjell
förening
##ligen
##rina
matt
kat
##nska
##uv
lang
ful
line
##tak
aktivitet
lärt
noga
##84
##hav
sprida
##yx
##blå
hemmaplan
betalt
##nder
inköp
ersattes
skala
##ror
##tet
tull
##ico
matcherna
##bon
##icollis
florida
börsen
##ianus
##ero
##ansvarig
##uf
##olo
##rup
##året
uppnå
##ual
hjälpte
power
nedan
leuco
anslutning
porträtt
karriären
sebastian
särskilda
bob
##fan
##sma
kampanj
high
svenske
nyss
missade
aktivt
blanda
berättelser
##ätt
medeltida
artikeln
62
publicerade
piper
hjärtat
jättebra
utgår
formel
kanon
##eum
##hm
##83
gifta
innehöll
skadad
call
finner
##82
utnämndes
tungt
##yp
vardags
direktör
klassisk
1000
dikt
samling
förlorar
gun
vacker
mona
ved
recept
säg
studien
bergman
##uc
drabbades
##olog
##vetenskap
your
växande
##52
mail
kvalsterart
bes
##bur
framgångsrika
eg
halvt
sprang
arkiv
##ös
underbart
kompisar
hemmet
arkitektur
åke
##karriär
##gy
jens
cigg
1887
springer
##pat
vietnam
tjäna
60-
fasta
variant
kil
sköts
##tog
mordet
söndags
sprit
##kast
##ophorus
släpper
##unda
planerat
fantasi
sjunde
box
##enius
pär
karlstad
ås
kontakter
inställning
ibrahimovic
##96
##grad
##länd
=)
##blom
##röd
signal
##dus
utreda
hundar
##fritt
majoriteten
##ifer
elisabeth
religion
strider
##ew
europas
rolig
snäckart
stav
liberal
publicerades
singeln
undersöka
stra
avslutade
##uff
tävla
modeller
kvarn
inser
statsminister
valuta
hastighet
flav
##sätta
##resor
tommy
bryr
oh
##museet
##kod
##kol
kemi
54
barr
hävdade
##jag
uppstod
jackson
##motor
utföra
efterhand
##uta
##bach
bjuder
##gul
genomsnitt
nordvästra
moderaterna
ladda
gymnasiet
lys
tvätt
.....
tipula
motion
finansiera
säsonger
etablerade
1878
##skär
##förbund
##vind
bus
trädgårds
bond
##73
lit
satsar
tävlade
##ago
900
##bank
förmån
##bak
bedömning
speciell
portion
sanning
##vad
##final
koloni
##station
kunderna
##dre
minister
intryck
omständigheter
##inna
##yll
##länder
##ls
hd
kn
kre
tåget
objekt
##ioides
74
dyra
tidskriften
##-10
skivor
minnen
händelse
klor
speciella
arthur
reform
major
app
ball
kallt
kärleks
msk
1863
##ationer
konstnären
torka
arbetslöshet
tin
biljett
##industri
representerade
##att
##sö
chicago
##öd
lokaler
partiledare
åsa
jurist
##resultat
drabbats
##tänk
##kas
alltmer
##osum
branschen
##jar
jävligt
##sc
akt
##handeln
rektor
bidrog
hud
utgav
hansson
hugo
##examen
##ille
fullständigt
pappers
väntan
##fåglar
verkliga
konstaterade
##ografi
jämföra
##hets
peking
presenterade
vädret
gula
##fartyg
##br
kapacitet
piano
##lev
rolf
lapp
##ostoma
1860
dött
dagis
latin
kommunikation
##stid
hoppade
##eta
promenad
##.3
warren
bengtsson
hundratals
inc
ägaren
säljs
byggnad
gentemot
##nom
bert
##vas
##tagit
jenny
##folk
dubbelt
överenskommelse
alingsås
##dde
1886
uppdraget
##männen
##lind
##ios
##tho
##well
huvudsak
läkar
somras
testat
mr
costa
##thi
wen
##rande
metoder
tam
##oy
stick
vel
##sco
south
platt
pilot
rörelsen
56
apple
##roman
##äkt
##63
bmw
##myr
uppges
pres
lac
inblandade
historiskt
wal
##ssystem
erhöll
sydöstra
seg
premier
annika
expressen
##cra
jämn
lasse
school
parken
##yo
colombia
skilja
viktigare
färsk
nytta
##gångar
stjärnor
2,5
ovanför
pettersson
##out
##ori
53
korrekt
bussen
##teri
##sätter
pic
bana
##tos
basket
##omyces
asp
minus
##get
##vers
bloggen
anpassa
freds
benen
turné
sekund
tät
vackert
katarina
##öl
tvär
smal
##xi
genombrott
##91
##bär
socialstyrelsen
spets
bilda
handeln
lavart
anger
kapitel
prick
##iner
medeltiden
måndags
##risk
##hon
infrastruktur
mejl
inse
##ido
##gia
aktörer
andelen
albo
##ved
gatu
carolina
riksdags
sydvästra
##eh
claes
dikter
ara
datorer
uppväxt
##ilia
roller
##mit
klubbens
leon
krog
uppenbart
affär
mask
##cl
märkt
syr
halvår
distriktet
duktig
kollar
upptäcktes
dc
##miljö
pågående
##gna
mario
##vattnet
klubbar
tobak
munnen
behandla
bonde
##sil
skräck
omvärlden
framträdande
reg
##xa
bröderna
##lapp
##tävling
##kade
huruvida
polska
regissören
härligt
##ned
varannan
personlig
smäll
##given
ox
smakar
##wood
##punkt
##ationen
mej
saknade
backa
ljuset
fenomen
95
1930-
åsikt
skapades
bryssel
arenan
pal
##hag
såhär
rod
lösningar
kraftiga
##bom
befäl
närings
##ock
urval
avsnittet
1884
håret
what
drev
spelaren
kvartsfinal
##72
sh
grattis
heta
##järvi
tillfälligt
gilla
##94
##tiv
1882
elin
herrar
##utskottet
korruption
##aeus
adel
samarbetet
fritids
utgörs
naturliga
alex
signaler
##gift
vardag
group
värden
college
väckte
vårdnad
trädgård
anhöriga
##sis
ving
##92
komedi
hehe
40-
sundsvall
##jpg
##lina
arn
##löv
kiss
medveten
cur
rio
eftermiddag
##båt
hållet
yu
##ym
svin
intressanta
##ifolium
sökt
##93
sedermera
tyg
##krig
punkter
hamnat
mora
solo
##top
pigg
1879
onthophagus
sjukdomar
nödvändigt
##-12
##gre
58
slav
##ospora
##erik
orsak
##röst
digital
okänd
##larna
räddnings
##institutet
diverse
norman
smart
##etter
grejer
##kommun
##rie
##74
budskap
förbundet
snygga
##02
gammalt
jönköping
peppar
nes
##nämnden
##gard
höstas
löst
##smak
##gn
roma
##rak
edit
talas
blott
fira
##cul
schi
högskolan
ordna
##anensis
hals
diplomat
letar
##regler
representerar
hatt
##oba
troligtvis
västergötland
föda
konstruktion
närvaro
kristina
täck
vägg
##eck
republiken
##vagn
##kostnader
kostade
rättegång
lovar
mjuk
##zy
##fria
åk
lärde
arbetsförmedl
hyper
michel
besöka
99
åtal
sålt
unge
cla
reserv
hyr
##ye
bryter
brunn
lei
##träsket
tuff
helvete
lägenheter
sahlin
älskade
vägrar
##stick
sydkorea
sjunga
57
##и
moder
##äv
1865
längtar
royal
##linje
stock
prognos
sweden
##roll
ax
elfsborg
##värld
gil
##itis
insåg
meso
sms
kalk
dyr
zu
arsenal
bell
jansson
sci
gjord
flyttades
deltagarna
undersökningar
kritisk
##produkter
##ish
nerv
skickar
til
nervös
##kamp
##ving
ji
##elser
skrifter
trevligt
sover
bränn
låtarna
##ky
tätt
retur
sto
##erings
cam
byter
sugen
##ral
självständighet
##ique
##nande
09
melodifestival
pala
festivalen
##box
pojkar
stämning
##fen
arbetslösheten
bytt
behovet
redaktör
##ole
swedbank
mid
ersätta
##can
##ai
aktiviteter
rimligt
kron
kristian
fånga
camp
##zar
protester
blek
##ili
vittnen
taylor
materialet
sankmarker
##direktör
konstnär
inleds
roliga
knapp
##text
##nö
bolagets
avsked
omfattning
##skador
flygplatsen
forn
kostnaderna
##ato
muslimska
damer
drivs
trädgården
lindberg
hårdare
enorma
uppenbarligen
deltar
förresten
alm
act
ägs
trea
dagbladet
skinn
gotland
enormt
faktorer
##ckel
##sök
##kandidat
##ali
hum
spr
1880
##cken
##not
##institut
manliga
##tagande
ten
##sås
##ito
chelsea
kunskaps
##lyst
julius
##hammar
##eth
årligen
##tella
himmel
old
ruf
##cel
uppleva
##målet
##sha
föredrar
byggas
fysiska
påverkas
##glas
cri
##els
butik
märkligt
förluster
bjöd
##ule
dys
agent
utbredning
##ë
kas
grill
turister
förstod
##anter
demokratiska
forskarna
##sex
sända
myndighet
mö
strö
##grav
finn
##ovi
fångar
ivf
1881
förståelse
breda
like
##pl
##matcher
hil
utvecklade
praktik
företagets
slogs
vinsten
nordisk
hamburg
vägrade
rev
##elsen
##lande
moore
##analys
globala
tegel
spa
tempo
glöm
nöjda
##vapen
tvätta
sanningen
nivåer
möts
##ick
stephen
kunskaper
återvända
##odi
##win
uttala
##ada
hag
avtalet
who
##via
äl
##run
stödja
##pogon
produktions
##kning
##obius
manus
taiwan
##scen
beslutat
nordea
pratat
chrys
##iken
garantera
##skapet
##uck
sexuella
kongo
gälla
åkt
löp
06
strategi
##vakt
identifiera
kommunens
hämtade
utsatta
birgitta
skylt
tema
##bre
nationell
dvd
hjärn
norrbotten
socialt
angel
##makt
##jä
hammar
kass
##bla
hunden
förhandlingar
##dans
förändras
datum
vikten
händerna
östergötland
pia
bredd
##läget
dokumentär
placerade
spansk
science
##ves
diesel
##opha
euron
beredd
##brand
petter
passagerare
alternativt
gymnasie
välkomna
oväntat
young
rekommendera
##kul
prix
aten
lita
##pu
##anda
##iter
våras
##politiker
lyc
kos
wei
texas
more
chanser
1877
teknisk
situationer
his
##got
förhandla
rem
städerna
mynt
sattes
##bäck
##ama
josé
kvinnlig
miljön
##uensis
spräng
anställning
konflikten
lärar
##skrift
nämnde
märke
långsamt
club
oppositions
##väl
skratt
tony
ångest
cel
tilldelades
##ert
aktuellt
##sion
##stopp
sådär
stro
puss
enstaka
flor
indiska
hjärnan
begränsad
fysiskt
samarbeta
nivån
##mani
kristen
skärm
bildas
##festivalen
omkom
butiken
ledar
bou
tufft
dubbla
marginal
##lett
skyldig
årsskiftet
##ident
lyfter
tappat
presenteras
party
kollegor
##otis
marknad
tittade
spök
1874
administrativa
sats
laga
##länderna
##debut
##vat
utställningen
negativt
tel
##ativ
blue
##-3
##syra
fro
moral
françois
kostym
verka
konsult
varor
utgångspunkt
skickat
1875
bö
födelse
ärendet
homo
tjänste
ljung
kvartal
temperatur
självmord
genast
##driv
regelbundet
uppror
have
##skal
##läkare
tävlar
##usa
chefen
##iserat
detalj
las
hotade
##ech
arab
kungs
strids
##kåren
trupper
how
##sv
##följd
there
proffs
skiv
studio
meningen
##rika
bägge
flykt
##format
vä
värst
sken
##ure
rapporter
pyr
##trakt
detsamma
lille
övergick
släkten
1883
##cep
programledare
runda
intern
attityd
##yer
veckorna
##bröd
##itz
##blocket
##stjärnor
likhet
galleri
fr
stör
hållit
kok
hollywood
plantera
##eller
##finalen
nedre
##full
##eringar
nordamerika
##bis
anhängare
berömda
förväntningar
stone
grekisk
slutat
finansminister
##py
skillnader
##lock
tunn
##ions
##isera
##vald
flyga
##fallet
reaktion
way
stabil
iphone
kara
stryk
sången
upphov
kloster
##gräns
##stads
utnyttja
frakt
swedish
sop
wild
upplagan
skoj
##lagt
chen
##ställda
utdelning
summa
människorna
um
enhjärtbladig
##givna
svampdjursart
59
tvinga
därtill
##ssen
1869
##pal
bolagen
besviken
arbetare
berget
france
våga
kinesisk
skarp
framgångsrik
##dén
aktien
fotograf
##das
##kes
##án
främmande
nämnas
attack
zo
förstått
grepp
skilda
nan
överhuvudtaget
##ile
söner
##hin
frans
säte
##kval
##pek
##-20
##ära
##ophylla
trafikverket
kärleken
fäll
tjeckien
##former
utkom
kind
resultaten
domare
##htm
##berget
##ställd
pod
##säsongen
stämma
citron
matematik
##nivån
##äs
ludvig
bedöm
##försäkring
##avdelning
##zia
orange
blick
analysera
nämns
##delen
väljarna
effekter
ägnade
fatta
övertygad
##skada
återkommande
astragalus
stall
##fart
##tävlingen
ikea
afp
hamilton
trollhättan
nigro
##tjänster
skepp
orm
tävlingar
emellan
tidnings
##träning
kraven
uppmuntra
beskrev
revolutionen
skrivna
länsstyrelsen
##ogaster
finger
##pur
militären
åskådare
1866
kenya
info
mikro
##version
aga
crypt
hampson
pant
rörelser
##log
bekant
##ite
rulla
##ianum
väger
stigit
truppen
historisk
bayern
##rio
josef
##sattes
starten
japansk
walter
vladimir
cin
baby
morgan
krok
psalm
hemlighet
chris
kroatien
finansiella
##politiska
##minne
läggs
frid
od
##qua
##alitet
formellt
##eira
1876
dygnet
människans
##ui
cop
##html
givit
göta
korsblommig
svårigheter
munk
##sko
satsning
##mod
poet
##tj
kinas
##stu
cameron
sjöng
älska
industrin
värdet
ass
##familjen
skatteverket
fåglar
mormor
##cula
morse
##jk
skadestånd
wilson
mölndal
syl
chryso
omfattade
automat
slit
personlighet
styl
marc
röstade
panik
vänsterpartiet
hitler
fog
##oneura
tru
##här
hinder
##ore
##kår
revolution
##ati
christ
breuning
lätta
union
varg
##ctl
trupp
planerna
tiger
rinner
vattenfall
hertig
bitar
##ide
##fång
producent
skottland
dyntaxa
sä
sph
besvär
ica
christina
pl
sånger
innehållet
vården
tillkom
##fisk
##träff
stanley
märker
presenterades
##ington
tjuv
torsdags
##tade
leverera
##arius
kejsar
julia
journal
talesperson
finländska
upplevelse
human
05
kusin
konsten
pont
bildt
phyllo
veckans
atom
anth
##.5
rösterna
allvarlig
##fullmäktige
ångermanland
##esta
experter
lagstiftning
##byggnaden
väggen
##ations
beställa
##lek
##skjut
stol
linjen
rika
anges
varianter
kd
vardera
eurovision
västerbotten
blixt
ambassadör
##strid
tappar
##verksamheten
##forskning
osäker
##tagna
akademien
tekniken
brett
states
well
spelen
1500-
tysklands
olofsson
tillväxten
##sområdet
förälder
styrkor
##baserade
utbildningen
armen
1868
##sing
flykting
##sats
samtida
##plex
stek
chefs
lägsta
nigr
##bord
motorn
otillräckligt
77
##oria
eftermiddagen
##orden
krafter
1858
halland
##hjul
rovflugor
erythr
##iserad
sänkt
skandal
prim
##pia
insikt
månaderna
##rut
global
svaga
##enia
förhandlingarna
konflikter
steno
sala
##ami
hav
fattig
proto
skådespelaren
hyl
vinster
##nit
orsakade
svamp
##cos
sysselsättning
##feldt
##pet
##acea
tabell
barnens
omgångar
utspelar
##oj
ansikte
avslöja
##ate
##fra
##oh
kredit
76
kna
sakta
torget
##läggning
glass
foster
soffan
rab
folkets
risker
katolska
muslimer
##til
egentliga
leg
utvecklats
rub
let
##bildning
berättat
utsatt
##aj
##sång
fra
kongressen
lyft
björklund
kär
fer
diskussionen
steve
uppfattas
leka
kollektivtrafik
mai
målvakten
betong
perioder
##thy
cross
öarna
förundersökning
##lect
vision
##tti
##ado
ei
##pack
sahlgrenska
##gal
stånd
##igera
##spor
kyrk
##studier
tisdags
arne
hörs
##öarna
samlar
##jaure
hinna
syriska
messi
oför
rud
##wer
kulturen
##nämnd
albi
##iger
##anum
##trop
byte
klänning
1864
päls
burma
rit
grus
##satta
ret
hat
##ellidae
annons
jr
joakim
tjock
mät
lösningen
##jord
##ote
mätt
sexuellt
neuro
skrattar
ingenjör
tja
ingrid
ai
studioalbum
##ias
stationen
funka
chlor
investera
61
rötter
het
trycka
wood
kollade
##cta
hamrén
##lösning
psyko
psychotria
##mba
kart
race
tiderna
sköta
läraren
rädsla
granska
margareta
##politisk
experiment
fyll
bosatt
agerande
fattade
bekämpa
missar
medierna
upphörde
blind
##filmen
bakåt
sid
##öv
disc
stein
sem
vu
pur
folkpartiet
##boll
döma
kämpa
kaj
ledsen
##klipp
##pul
kyckling
##emot
##ellt
cli
##esi
##gränsen
snälla
##ites
##kamrat
komplettera
1-
##zel
kök
inner
länk
cra
##ough
##takt
mart
monte
##perioden
##priser
backen
tjänstgjorde
lider
båten
typisk
over
##eon
hydr
##bidrag
killen
##last
cord
extrem
lid
informera
hovrätten
kin
moln
begravning
##bul
##gla
tredjedel
1850
##skrivna
kompositör
##bilden
##nation
riktade
##sektorn
##enko
dos
##innan
ledamöter
##int
##ú
##ionen
##sdotter
##rarna
riksbanken
trygg
gilbert
##inger
##aire
stängde
läkemedel
##ulosa
lockar
met
sö
##rim
spridning
städa
##jakt
bredare
##gången
rejäl
iso
##beck
##fs
dörr
tran
åttonde
boy
##sund
##pil
domaren
telia
halsen
cata
##mu
kostnaden
nav
##cu
poesi
böckerna
imp
##stationen
drömmar
dök
skr
##cera
dio
självförtroende
##0.000
bulbophyllum
däck
unionen
steget
konferens
##färd
##myndigheten
evenemang
##mossor
##aga
färgen
tätort
enorm
##gt
##zer
representanter
variera
##rå
konstant
greve
flertalet
invandrare
##tat
olle
östersund
##ces
omsättningen
fantastiska
överklaga
##sug
ungdom
färd
förutsättning
1872
utav
rang
kastade
fruktansvärt
kriminal
lyder
fen
##tråd
##ric
bilarna
1867
##iventris
finlands
fed
##företagen
sävehof
boston
gla
##nytt
föreslog
##worth
##flo
läsning
joel
##album
sel
huvudrollen
mineral
tillgångar
mis
föreställningar
##hal
negativ
lundin
effektivt
bekräftar
##oidea
folkomröstning
bohuslän
ansökan
hälsingland
night
##az
passade
byggd
solna
grymt
förhand
down
regim
sprint
louise
koppling
fet
78
lärarna
stranden
##skytt
é
##star
beck
utbilda
utbildade
billiga
wo
##lab
##höjning
riksdagsledamot
##uz
blekinge
fördelar
fjädermyggor
förvånad
löner
genomförde
musikaliska
räckte
##)
fysik
allen
1861
action
sus
##arbetet
separat
rim
##sarbete
##cro
tvångs
bag
1871
jer
mul
skulder
##eld
##enta
onsdags
anordna
betrakta
räntan
##halt
##zu
##ous
försäljnings
qui
##gl
##vent
mång
neutral
förvandla
rec
##olja
serbien
##tävlingarna
lut
andrew
rensa
##gam
##ons
nye
nikotin
definition
gill
79
##bud
110
diskussioner
##feld
allsvenska
rull
talesman
ot
##pengar
##björn
##ue
studerad
##ellia
filosofi
mall
##beslut
talang
##eur
enskild
hatar
##priserna
ullevi
färjestad
filmerna
lilje
##show
cast
häng
kämpar
gjorda
löser
##producent
##hund
##odont
##wan
styltflugor
##fullt
##baggar
vårtbitare
davis
minoritet
##undersökning
spänn
oftare
santa
byggs
##gro
##lum
girl
böj
landskapet
billig
##onotus
anmälan
ingå
åklagare
tänder
sistnämnda
böter
upprepade
angust
varma
harald
##dda
##put
##opogon
räddade
##stru
idol
summer
##act
uppgår
bero
bordet
##kedjan
dec
##intresse
bis
1873
##nik
qua
frida
hotellet
sanna
barnets
##dam
romaner
antonio
##pop
baker
##lades
##isa
##kla
gräshoppor
ross
##fot
utmaning
kvalitets
##oo
##opter
##gjort
överraskande
tendens
sambon
fusk
##byrån
phys
stöld
semifinalen
cro
##rest
association
varnar
liverpool
titlar
##skjutning
handboll
avsikt
blivande
förbud
klippa
##maskin
kir
golv
påsk
ör
##dos
##oxid
##hir
rat
prioritera
falla
smitt
dricker
##rell
fallit
luktar
etapp
klicka
renovering
permanent
##logi
chock
beslöt
##š
lås
##koncernen
##die
zeeland
hugg
löper
konsumtion
egenskap
stängt
##rick
##kh
hä
möttes
corn
##skärm
das
##ming
##iro
betalat
rug
bog
möbler
sköter
ryd
##öm
leende
nämner
wales
busk
friidrott
nag
inrättades
plat
kusten
##visning
vaknade
röker
skal
dialekt
bevisa
normala
ah
stru
bebyggelsen
upprätta
##ness
utställning
##lägga
clo
part
vuxit
hyres
##källa
flydde
gam
människo
baserat
ferr
##borgs
##rep
regional
river
##göra
glömma
jämföras
snacka
##skrivning
bertil
##cola
konto
##jäl
judar
versionen
1859
imf
punct
lott
tydligare
##chel
##krav
müller
uteslut
fåtal
marknadsföring
2016
ala
##jen
apotek
##.4
##aster
##issa
##yta
pers
##stiden
kretsar
traditionellt
licens
trettio
##växling
plugga
herre
##orm
frånvaro
##planen
##ball
dödade
nova
gunilla
restauranger
pot
##kad
ec
xi
##bio
flottan
återkommer
##opl
##anska
människors
skade
blomma
##oco
cool
##-4
representant
##pas
##bitar
häck
##floden
##ej
lev
förekom
brukade
oskar
falk
bac
##förbud
scha
gy
sträckan
tagits
##kå
enhet
relationen
njuta
##kyrka
kontraktet
##fär
rekommendation
arbetslösa
låtit
översatt
kamera
populärt
hult
##rens
stiger
1920-
##domstolen
samlas
angrepp
##ello
plagg
rö
##abel
##filmer
missbruk
väljare
invånarna
gm
##maculata
interna
temat
kalle
motorväg
skrift
bab
jäkla
senator
rida
andas
04
##pter
bloomberg
##spelaren
öppnades
pul
underbar
medverkat
lyfte
##vu
##tina
kuba
amatör
lycklig
undra
konkret
romney
##illo
behandlas
ever
kritiska
bromsar
kanalen
kaos
##behandling
##mästerskapet
rykte
docent
skövde
upptäcka
liseberg
deltagande
eugen
##mas
startat
skytte
areal
##tagen
siffran
##ppa
svensken
femton
gods
rapporterade
##ssus
konstnärer
##turnering
gt
tiotal
individuella
kommissionen
##inella
##nc
##ffer
protein
jönsson
##parken
##los
lundqvist
strävbladig
deltagit
naturreservat
möjlig
##elle
stallet
acr
##iker
konservativa
landskap
eri
klo
uppmärksamma
##slut
crass
dagsläget
##eau
gh
eupithecia
godis
djuren
tvingats
sval
list
mästerskapet
##nos
överraskning
utgiven
import
##koll
##drift
skick
lar
försvarsmakten
löfven
lou
profil
pågick
##känsla
##iola
förväntas
beethoven
utvecklat
##läger
hoppar
span
motsvarighet
svär
##grip
nobel
store
farliga
utöka
narkotika
skara
##flu
passerar
enkät
rättvisa
ekman
batteri
##organisationer
tacka
##huvud
avser
ät
##gil
farfar
##höjd
gräv
bevara
strejk
##flyttning
carina
steven
##serier
värderingar
mångfald
130
ama
demonstranter
div
gat
oc
yo
spring
bruce
soul
##-6
släp
##turné
stjärna
##cupen
##byggd
##kris
dramat
packa
##fred
lindström
klarat
##uma
##teori
vild
fyllde
##lagda
afrikanska
pas
kulturella
##isch
##hö
oliver
lok
##lång
resulterade
uppgiften
ätit
västmanland
matte
gator
funktioner
juventus
##able
##dikt
water
joe
undervisning
varenda
föreställningen
gäster
nokia
##ardi
jordbruks
##yg
##räkning
motivera
parker
##lingar
##side
hir
lugna
##väder
frys
stadsdel
jesper
##pes
krut
underlätta
mellanöstern
2:
godkänt
##rella
##ction
##häng
brygg
grönt
##ophilus
got
comeback
##aki
köping
konserter
prestation
fång
##frihet
##otus
öre
##old
1857
ant
mak
##ophy
tämligen
fabrik
rap
sie
lung
tillhörande
##skriv
operera
##non
##gav
carr
##enhet
reagerar
umgås
skål
påträffats
saga
faktor
hävda
vetenskaps
tum
##leri
##kos
clas
##löshet
rekommenderar
##marie
ull
##miss
##lär
##gått
centralt
##lei
lokalt
putin
tokyo
slåss
##eva
grannar
årliga
gos
staffan
slänga
medlems
##oensis
ställdes
##perspektiv
##förvaltningen
off
sekreterare
sound
##lyft
ögonblick
intervjuer
##issima
##provinsen
rörande
räcka
##figur
utsikt
utför
kliv
##thus
##rätten
decennier
jakten
fattigdom
##iff
fyllt
bön
hydro
betonar
buk
potential
markera
fortsatta
apo
lord
rumänien
pressen
##igare
##pod
##familj
oleanderväxter
synt
##mys
##100
they
misstänkte
##styr
uppdatera
missa
##toni
##oto
elektronisk
formulera
caroline
##oid
##dorf
quadri
##viks
sav
noterade
norrland
##-5
##hov
##orten
offentligt
sjukdomen
##ater
förmedla
##rä
rudolf
behandlar
orsaka
##sikt
hotar
##hagen
##zan
##lip
misstänker
läger
ambassad
skolans
##svenska
pir
överleva
gripen
##planer
pelle
gold
avsluta
##faktor
betraktar
mage
spektra
flyger
tår
##odia
bp
##brev
ivan
patienten
nigeria
vilda
##utvecklingen
##vinst
afro
betalade
petra
kick
82
lejon
rhy
framme
##ecta
grundare
lä
##fulla
attacker
ledarskap
testade
komplett
paradis
00
##eberg
odla
##day
pontus
##sländor
moss
idiot
tö
kock
tok
snack
microsoft
filosofie
vakna
##vert
##obia
cons
helikopter
##projektet
##slav
##fältet
##thes
foten
båtar
näringslivet
modo
erbjöd
fulla
##förare
jä
järnväg
##aktig
88
##betalning
kairo
sarah
slutspel
##ringen
lina
alice
##taget
betydelsen
##ämnen
uppmana
allo
framförde
tuffa
##riga
avancerade
##gne
venezuela
##fonden
madeleine
kika
dryck
himlen
austro
fika
typiskt
##č
##uer
##trädde
kontakta
kompromiss
rob
##anta
##modell
##ocerus
herm
##ovic
1830
bart
oroa
##etti
fungerande
bark
lovade
fabriken
lewis
blöt
våldet
praktiskt
##pyr
140
prince
avgick
81
kran
brant
##stå
bjuda
##imus
linde
forskar
##wei
##gb
påverkan
##jätten
värmen
psykolog
framställ
underbara
rörde
bureau
mala
18-
parallellt
tabellen
##ljud
##pla
åtgärd
längden
högskola
turkiska
digitala
kit
plåt
rabatt
##ägarna
tackar
amerika
hänvisar
handlingen
avslutas
bekräfta
##trich
kli
norm
mäta
driv
markus
soldaterna
##hugg
operan
flög
roy
kollat
rou
yrke
stater
##kulturen
pjäsen
##iteten
vilar
juridik
sek
nordväst
##fu
missat
befolknings
##ört
tänd
idrott
bk
grönsaker
påverkat
beläget
##stro
lav
procentenheter
##mund
klä
litteraturen
rand
##rym
##funktion
89
publicerat
##mun
##kun
##pic
youtube
hooker
förbunds
cyan
regerande
##rekord
##wald
tjänstemän
mobilen
home
kännas
tjejerna
##fond
mängden
flyktingar
koppla
biljetter
simulium
##säkringskassan
##kontakt
stiftelsen
gallmyggor
kategorin
stämningen
offensiv
informationen
stående
uppmärksammade
1852
lip
86
riva
trycket
slump
insemination
##ute
tankarna
vinnaren
##storp
##ckar
riksdagens
ensamma
övervakning
##uppdrag
adress
1848
##sekreterare
##opteryx
##konsert
##ør
fristående
träffas
wid
##rill
samarbets
järnvägen
sticker
jämna
märkte
##dräkt
##situation
punk
##aka
##cum
##öj
television
forskningen
##lås
kombinera
##amin
##over
placeras
skift
##modellen
##cur
hisingen
allierade
diagnos
spendera
##lare
klassiker
tillåter
bidragit
exil
##affär
sno
unik
kafé
släpps
##poäng
salu
91
volym
finanskrisen
hamnen
syre
jörgen
korv
vänskap
dasy
ändrade
##shirt
ritade
sportchef
äga
penning
##silver
sämsta
hållas
vers
edwards
ye
butler
heders
pirat
kvälls
vass
vana
##järn
kungälv
turner
fans
##kurs
dömt
##phia
förlusten
konkurrensen
##buss
mia
nem
utländsk
jim
allians
1,2
natura
träningen
sf
utgavs
##då
gracilis
pla
nyfiken
tillverka
##svägen
##ipp
##formen
scb
##thia
0,5
##oda
regionala
eb
klas
##ordningen
glömt
##kl
ögat
uppehåll
##lekt
blås
##fon
##ioner
spik
fusc
främja
manager
visades
84
härlig
ron
pier
stel
ecuador
kling
stiga
lucas
smyg
målade
kritiserade
##lob
##butik
##nig
madagaskar
scener
positioner
gamle
##fast
wu
skjuter
pressa
passiv
##kommittén
tomma
gay
smärta
frederick
uttrycker
trott
##duc
##landa
get
sovjetiska
##ith
förnya
legend
brynäs
hylla
midsommar
##tun
##vitt
basera
1855
påstår
verksamheter
minnet
tank
hk
##märke
prat
skam
dvärg
##byrå
gruppens
carin
traditionell
##lika
söderut
auktion
acanth
sallad
provins
meddelar
##dö
karolinska
plattform
present
kontrollen
pastor
##mån
utvecklar
##fas
suck
temp
bekräftade
läsaren
##draget
##sey
gynna
liberala
känneteckna
efterträdare
ansvariga
wang
krets
##xia
erem
sovjet
hästarna
presentera
vanligare
döttrar
älg
##medicin
kommunreformen
dru
kast
registrera
tvekan
##odo
upprepa
##olus
anläggningen
##länning
##sii
##mper
erkänna
individ
chan
##hof
åldern
master
aur
notera
spänning
##rygg
hjälte
föreningar
föräldra
ay
##kis
##tron
figurer
kvadratmeter
##fund
detroit
usch
cten
befara
sche
gordon
##sättningen
##kka
gymn
ulrika
##kän
##anställda
unika
åtalas
sym
klaga
##mul
##nne
lam
##sområde
tillhörigheten
inrätta
##rich
smaka
##häll
##stol
##rica
kyrkor
linn
nedgång
1856
spruta
##plikt
##omorpha
bladhorningar
euphorbia
begär
##ple
##vär
##tagare
judiska
oron
värdera
bristande
oleanderväxt
herrarnas
##växt
naturlig
kameran
sax
klev
nation
ulla
torp
patrick
hå
kid
##ð
##regionen
alan
tänkande
nationalpark
medför
automatiskt
##sprogram
utgivet
avdelning
##una
stöt
lidande
framstående
crypto
##inum
mali
##nea
##lägg
cru
iv
levt
avgörs
##ligheten
orkester
##eti
avstängd
graf
intensiv
##mask
gan
bitter
##turneringen
tillägger
världscupen
diskuteras
personerna
sångaren
parterna
##tiskt
ess
larv
melodi
asc
likaså
blomflugor
mästerskap
långfilm
herman
konkreta
vancouver
tornet
##pit
gull
metoden
##skick
utsläpp
släktingar
kommunstyrelsen
##stom
schw
eli
sångerskan
gatorna
åtskilliga
1840
skräp
spec
närmar
textil
webbplats
rea
kryss
mari
##smedel
påven
##camp
work
##pta
personligt
##vården
rené
mach
använd
bussar
##tens
160
##kontrakt
##mber
##status
presidentvalet
##vänd
hotel
fla
udda
mild
##teater
antas
brinner
medverkar
##tecken
##char
wer
##ebo
##fur
groddjursart
##lak
##massa
husen
välkommen
francisco
lem
högskole
hittats
serier
bj
avgift
smink
come
##ane
##varor
besöker
tittat
medicinsk
respektera
parad
contest
enheter
teorier
megaselia
##thyr
observera
shopping
##ökning
beau
##vol
mike
pc
nov
leverans
gästerna
##kull
light
kravet
##ée
flo
fornlämningar
rekrytera
##е
lun
heliga
fallen
senaten
##reuters
avhandling
nos
sydväst
vagn
guide
##о
skatter
lysande
officer
pub
tröst
hemmalaget
dödats
tvåvingar
väcker
utbyte
kä
fotbollen
skolorna
##tula
que
83
ändrades
##etten
bevarade
kvarter
##cycl
fäst
vistas
inledande
gry
##bes
##värn
##basis
sido
medvetet
biträdande
chalmers
kärnvapen
##tränaren
satsningar
##tjän
lor
polit
##hit
##dri
drosophila
sann
viola
dagligen
##sand
skickas
census
##iri
##tele
därav
##iculata
non
rykten
##iseringen
##fäll
termin
##ois
födelsedag
kongress
gillade
##gata
institutioner
förebild
israeliska
##fatt
hm
jämt
fur
brian
tillverkning
världscup
romerska
##tabanus
funnit
##gö
##-11
döms
hovet
gau
##uppgifter
polar
skrivet
magnusson
##författare
norrut
väll
##ctus
##roth
british
installera
inspelningen
chefredaktör
##paket
bedömer
klock
tvingade
framhåll
spekulera
##tsch
stödet
hängde
98
##insats
orter
halvan
jordan
reaktioner
krock
hustrun
##idus
sittande
varumärke
##samtal
##bbe
säkerheten
öm
mou
sammanhanget
dödsfall
dop
landslag
##polis
people
tryckte
snäll
upplaga
##smän
##oz
##istiskt
rikta
svea
kvart
romersk
mobiltelefon
förhållandet
brud
benjamin
harris
##sons
abort
patient
tionde
trenden
##bomb
stack
gissa
vänt
##acris
nominerade
##horn
arbetskraft
inbördeskriget
fastigheter
reporter
färdigt
synpunkter
fox
##tera
ach
avgång
bir
country
ernest
##skäl
##borna
historie
game
anspråk
jersey
uddevalla
##ölj
vest
ray
proc
tall
estland
föraren
framställning
yang
96
hay
etiopien
smaken
lep
1851
##rov
##aktiv
humör
hemskt
bänk
givet
mörkt
kommunikations
livsmedels
sidorna
nämna
besvikelse
spor
arch
pros
målen
anlände
ambassaden
påverkade
180
försvunnit
##plo
tjejen
tidens
##eng
shar
virginia
##-07
##styrelse
arbetsmarknads
patent
gle
servera
kostnad
rapp
bul
äktenskapet
målar
##distrikt
dna
ov
producera
talet
jonathan
haute
slam
wolf
rubus
##lagd
hjalmar
##ese
bot
sed
##stående
pastorat
skånska
vilhelm
##felt
veterinär
riddar
##värden
##byn
ägar
kontra
little
effekten
1853
##handlare
innehålla
carol
ärenden
350
tål
uppsättning
disney
torsten
styrde
lady
cocc
attacken
indian
ledaren
linköpings
kurt
lamp
##ocarpus
myrtenväxter
omgivning
kristall
uppskattar
##debatt
87
flytande
erövrade
tobaks
representera
ränta
möjligheterna
hemliga
sau
utbrott
fischer
##rk
fönstret
##stod
sköna
lepid
jessica
##snitt
leo
pho
lundberg
skatten
skapas
##mö
##kil
kollektiv
##meter
##historien
ägarna
psych
nelson
say
len
sort
ändras
praktiska
föds
##200
fulv
##ocephala
minskning
förenade
##dags
jar
##förlust
##tider
##ement
stabilitet
elektro
hop
mytologi
rimlig
bedöma
##talande
elegant
tappa
styre
ophi
hägglund
gripits
forna
singapore
rubriken
first
mcc
kollega
roligare
champagne
startades
lundgren
bloggar
anmäla
mah
##ō
haga
kungens
turk
##chro
##värdet
törelväxter
##essa
halt
murray
sjukvården
desperat
passion
förvärv
sca
lau
##boende
##byte
assist
##våg
ungdomarna
skjut
lake
grenar
kommunicera
tvist
##phil
hoppspindlar
##00_
inkomster
##landslaget
##gula
##kommen
köptes
presenterar
thai
betyda
ptero
fair
kurser
##enburg
maxim
kunga
upplevelser
brutit
sorter
novell
skulptur
juan
##titeln
tandspinnare
##örer
råkar
anomala
dendrobium
##ticus
studenterna
försvinna
##skole
brottslighet
sill
##lj
##kemi
##lich
existens
rikt
premiären
##saker
samtid
rådgivare
günther
mannens
##fal
##vä
bygget
termen
##rac
entré
köks
uttrycka
organiserade
##nätet
ändamål
##tori
mam
vardagen
##center
prinsessan
cylindr
skjutit
avslutades
vinden
gestalt
##:1
##rök
förde
förlängning
aug
händelserna
##splan
kontext
lea
##cop
ori
metro
palme
hiss
tröja
skrivs
johnny
dim
soldat
olyckor
lex
missnöje
express
prägla
onödigt
häl
##mästaren
prestera
kammaren
##stjärna
25-
barnbarn
##pr
ombud
landsbygden
sib
boris
pansar
##nova
##ón
##sidor
diss
##tii
##dur
##ägaren
sho
väcka
rosväxter
carex
##stånd
korset
därigenom
opinions
tillgänglig
vil
avslutning
utmaningar
##visade
kroppar
flickvän
##eder
granne
bernard
lämplig
dick
samlings
ritningar
xanth
falkenberg
##aya
tidpunkt
##museum
damernas
stenar
##ppe
##ration
synen
tillverkar
bm
femtio
lastbil
esp
##=1
##data
parlament
kryp
stjärnan
hin
öland
pav
##anläggning
utförde
##märken
tant
köpet
prout
kära
pund
##brons
##а
##vän
medicinska
härstammar
diskuterar
##klädd
##house
##mamma
homosexuella
##hållare
tillsätt
##kampanj
gaza
uttrycket
tha
##js
bolivia
övervaka
elegans
sjukvård
budgeten
##mmel
gri
orsakat
bush
snön
finsk
##onema
regioner
begått
jerusalem
mit
svagt
##cio
existerar
public
puls
stell
##cr
pjäs
##äll
kategori
##festival
sticka
myrtenväxt
##styrka
nja
ark
pter
ljudet
jönköpings
institution
krävt
cerat
defensiv
##tidning
förord
sydney
staty
monica
##affären
##yne
##låda
##brun
acro
tolkas
1,3
tillåta
##ängen
bod
förstöra
journalisten
planera
fötter
sul
landade
##tillstånd
reportage
when
akademiska
##ålder
##folket
revs
##katt
##vill
statistiken
måla
förändrats
##ichthys
jacques
##fågel
hållbar
0,2
sr
trög
imponerande
##mä
rutiner
invandring
lum
ref
trigon
hack
handlat
ole
tillverkades
musikalbum
fader
stafett
frankrikes
cirkus
##thon
##ega
mack
schmidt
skärmen
riktar
avseende
tunna
##högskolan
robot
kyrkliga
terräng
sydamerika
brottet
##cidae
##с
road
fasad
##vägar
helsingborgs
anlita
dominerande
kong
okända
asyl
ceremoni
##hör
vetenskap
##behov
etablera
blues
utmana
inledning
cher
ecb
##hållning
kriminella
korea
användare
fukt
vinterspelen
halvtimme
##nick
religiös
förbund
##vara
dryg
3,5
##säkerhet
1,6
lanserades
smått
##linjer
blocket
olycka
clark
tillgängliga
jen
svan
ifrågasätta
research
did
kopp
##court
##mid
##förbundets
fortsättning
norges
fysisk
##gga
##disk
kritiserat
##him
yr
vul
alf
##nic
farlig
##sie
tättingar
##iza
flyttas
koncentrera
##ald
kyrkoherde
##mästerskapen
dykare
skicklig
minor
vaknar
arrangerade
utfört
annie
dramatiska
toalett
respons
##kontoret
försiktigt
kontrast
friidrottare
##lax
upplevt
höjer
likadant
specifika
stängning
områdena
prop
##fre
##cka
malvaväxter
1854
svidknott
##shop
anslöt
konjunktur
mjöl
motverka
cypern
##ät
integrera
##smål
peka
##rädd
sjunkit
underlag
oliv
engagerade
oklar
statlig
begränsade
variation
skildrar
##chor
sudan
acut
spetsen
lyd
samtalet
pistol
ägt
christopher
##cap
polsk
rond
kau
åbo
samlades
##enskapsakademien
170
mossdjursart
1849
##tips
##dun
##idea
##givare
##samhället
tillverkas
inlägget
bortom
aktion
fiktiv
##mé
senior
inkluderar
lom
knäpp
stänger
knark
##skiva
balkong
##anthe
bäck
##lav
##jour
##segern
nedåt
skepps
representation
byxor
funderat
penn
clinton
exo
skivbolaget
##ansvar
tillträdde
cent
målskytt
1,4
mara
varefter
##sbergs
versioner
långtungebin
##föll
sajten
coach
öar
fötterna
månaders
chefer
tomat
torbjörn
america
gray
disco
##flykt
studerat
trollsländeart
regemente
våningar
wan
följ
karta
tretton
målningar
##trar
##utrustning
bang
23-
##eman
löfte
institutionen
hemlig
erkände
cook
danske
törelväxt
##skivor
##körning
##klädda
##drivna
1940-
fotografi
elias
närhet
##opis
cul
prag
##mad
tyskarna
isen
##samhet
raket
##omyza
avgjordes
engagerad
##gno
vandra
strikt
beslag
hallen
kommenterar
sture
##orhynchus
konstruera
##spärr
##inspelning

try
##para
##unt
auguste
vik
janne
frost
upphandling
uppträdde
##tala
pump
##jär
##fasciata
wel
motsats
leonard
sannolikhet
rica
douglas
firade
##gur
nyare
häx
förekommit
besvara
juridiska
##esiska
##köping
känsliga
##märkt
lis
klubbarna
tjänsten
nigri
stri
##fort
now
grannen
förmågan
lovat
##col
överskott
temperaturen
huvudort
0,1
clav
kill
bau
##dol
92
föreställning
baserade
##skild
samlat
förskolan
veteran
dur
fattat
petr
ash
wie
##hantering
##cord
miller
##båtar
##icauda
##regn
planering
stötta
beredskap
kategorier
forsberg
##timmar
uefa
mammor
förbereda
annonser
reducera
dry
bulgarien
förvisso
borgen
herrgård
##ery
ersatte
kerstin
carlos
##phylla
akantusväxter
meli
##asi
##död
komplex
avlade
förväntningarna
sägas
traditionen
torde
nödvändiga
bekymmer
2-3
free
sänkte
erkänner
fotografera
troligt
##kontor
honor
pap
pågått
teorin
mim
##produkt
chap
varpå
sve
verb
tält
##intervju
moment
spåren
##hästar
djupa
##arm
organisera
ledig
misslyckades
hållning
rubr
tomten
##utrymme
slo
##bius
##watch
flavo
##skrav
haiti
##lé
bicolor
##ströms
övning
önska
förekommande
##fotboll
låne
see
##byxor
nämnda
pallid
svärd
rader
väckt
##fran
vittne
hektar
##känd
strukturer
##centr
##lineata
##qaida
eh
svävflugor
gross
berodd
utforma
skjuts
frederik
bly
sälj
hänvisning
##undervisning
mission
täcka
amazon
wis
rasmus
##minut
förväg
werner
fungerat
##gat
toppar
right
märken
##manna
##ches
glöd
125
##stri
förvaltnings
utslag
genre
##tit
##tjärnarna
komposition
##park
vänlig
##före
avgifter
tvilling
##then
brann
okänt
försiktig
bentham
##sån
fritz
avskaffa
##isse
höjning
garage
##mir
karlskrona
trädde
huvudorten
månads
honan
##hemmet
saudiarabien
bistånd
sony
rått
stigande
centre
epidendrum
##premiär
söderberg
##byggt
republikanerna
generationen
företagare
minnas
##lja
hjort
thu
##fus
gyllene
utlands
##galan
our
gö
sällskapet
dämpa
macul
finländsk
finansiering
glo
##cea
muller
försvaga
väv
##ektiv
##bru
##onen
##tio
explosion
##placering
zyg
take
nuläget
##ränk
##dotter
besegra
författarskap
##rörelse
arrangemang
maud
##ägda
dansa
anmälningar
begära
liggande
beach
##handla
1.
osäkerhet
grova
ungar
merkel
##cla
gösta
cerato
dörrar
##arie
##bygg
ophio
försämra
beröm
europeisk
##papper
felaktigt
graviditet
##town
striden
lati
obligatorisk
utforska
ägo
##hum
gur
avgör
##gram
amsterdam
sjunker
##ark
aspekter
##skepp
tillverkade
placera
##=3
petersburg
1200-
##elo
fars
lyon
orgel
lagets
##hems
sanktioner
kommersiella
korn
körkort
växel
dance
tillämpa
bäste
timrå
##period
anderson
synes
fullständig
##ubb
upptäcker
ddr
erfar
94
##ture
naken
söta
lib
##effekt
café
magdalena
##onis
##ische
##lära
inflation
utöva
##rom
bekväm
kritisera
grafik
##head
kvalité
mittback
##ularis
sökande
##låten
##byggnader
##ören
kata
depression
polisanmäl
jimmy
frankfurt
dominera
##leg
guldet
blank
träffades
alternativet
fläck
##ár
ärkebiskop
##energi
borr
slutsatser
duktiga
##flygplan
monark
mysigt
curt
oralsex
##ann
råkade
tingslag
lura
cover
olig
##säsong
bristen
farmor
borgmästare
bedrägeri
##itus
avgå
gata
nina
myc
framtids
huden
hantverk
##ställningar
sämst
##vir
hyllade
##lust
grym
religions
syntes
##gui
skiten
rangers
##rc
präster
##iya
slutsatsen
fula
##neri
blandade
vilt
##sbo
kemiska
bruks
##zin
referens
sör
våldsamma
albin
välfärds
##lem
##svensk
tyngd
##terna
##ère
rutin
##lept
fuktig
eduard
bevaka
boka
##försäljning
hjälpt
cycl
ll
##fog
##kanten
spindlar
uppgång
riksdag
inhemska
rymmer
klan
fle
##åk
mörker
marsch
vag
fire
noggrann
19-
centr
centerpartiet
öppnat
##yra
vå
fossil
##produktionen
##struktur
genomfört
##yla
##bod
nec
aluminium
##junk
##iel
##rapport
ng
heart
livsstil
##topp
demonstrationer
gaddafi
häv
heltid
singlar
##lio
satellit
##ô
hyfsat
såna
##rem
15-
mercedes
parv
law
##löf
läro
rullar
sup
##fyllda
##hult
generaldirektör
##unga
pos
##ministern
tolka
##celler
sågs
mast
tunisien
##försvar
uppmanade
##varande
hoppet
ätten
bosnien
generationer
långvarig
smält
##phor
##håller
made
nionde
##onium
##shire
jam
socknens
##.15
##ize
##born
##gaard
gemenskap
##aci
backar
kvinnans
beställning
säl
dominerade
spärr
##vagnar
gräva
hallon
##zen
västtrafik
dumt
cou
författar
##kött
reflektera
glans
världsmästare
##tema
effektiv
inleda
##anga
kru
märket
argent
1,8
edvard
##rium
##nema
överste
##källor
återvänder
##ige
klient
93
samhällets
agerar
##paret
färdiga
##gle
##rätter
förlåt
nationen
kontors
##ær
##stationer
##samling
dir
ill
kejsaren
gnäll
##tiva
##rach
##row
##trichia
##fem
googla
fonder
##lang
akantusväxt
konsekvens
butiks
holo
kår
##:00
1846
kate
inge
##steklar
universum
bast
snor
ocean
##neralsekreterare
##äft
räkning
##riska
wagner
luci
##taket
malvaväxt
stilen
artilleri
turbo
avhandlingen
smitta
##läst
##splatsen
levnads
beat
delat
than
bröder
##kär
passera
1847
skidor
krasch
vågade
snål
lob
##cat
laur
cit
##onym
amerikanske
dark
##ulatus
put
chu
##lings
marianne
##mission
stockholmspolis
east
utgöra
##kritiker
##mela
moderat
1838
##riket
slapp
flagga
rick
kastar
oroliga
##rang
ål
gyn
omgång
höjt
state
prae
djupare
tidskrift
cykla
riktlinjer
##sprocessen
återupp
slakt
##forum
torra
amerikanskt
husflugor
trummor
medger
medvetna
##skänk
##rosa
##givit
ultra
##sområden
väggarna
lidingö
skadats
##tern
##häst
merparten
köttet
starkaste
delad
##kroppen
uttalanden
mill
läder
uppgörelse
registrerade
##kk
nöt
##slutning
marina
##handlingar
##ländsk
##tier
meddelande
##dator
##storm
arbetsplats
sprider
antogs
##evi
fräsch
##mera
vägarna
##punctata
pie
monster
drivit
toyota
coel
wallenberg
expedition
##sitt
##forskare
1-0
gummi
##avtalet
##isar
##fabriken
know
##lingen
kostnads
##burn
läkemedels
chili
linjer
##ward
omsättning
him
invald
24-
##serv
resonemang
##syr
galen
wik
arkitekten
önskan
förband
##mast
rike
##gräs
##omy
##skolor
stängdes
historier
omgivningen
öron
sjukvårds
demonstration
fastigheten
hyllning
fö
längtan
##llar
##°
##gade
award
biblioteket
elak
nepal
försäkring
##skij
##opius
##jung
verkstad
kel
biografi
##efter
erkänt
centralbanken
sva
silva
##emi
fär
skandinavien
falun
ökningen
symptom
##bladet
##ismens
flavi
##ringar
lyser
glömde
expansion
swe
garanti
##bli
anta
##banken
##nov
##kok
shu
##fix
upplevde
reglera
gent
korallart
##ingenjör
##landskap
innanför
trapp
##ologiska
##ochilus
asper
melano
sektor
virid
##stockholmsbörsen
pojkvän
tjänsteman
ställ
##ularia
begäran
##tim
neka
##ely
administration
cole
dikten
flyt
parac
##fotograf
pry
landa
saabs
bos
kläderna
östersjön
mubarak
##medalj
##ptera
##inkomst
##ics
billboard
favoriter
bröllop
##mot
avsedd
anmälde
urin
##nämn
##mand
##planet
känslig
##nius
styv
fokuserar
julian
##xis
utbröt
mött
kvarteret
skyldighet
##culus
ställas
##titel
kvinnors
##avgift
falc
kvalet
efternamn
##märk
siffra
bom
täckt
provat
##tek
antik
slotts
prövning
jungfru
##tain
##aux
protesterna
##aktion
##stens
påstå
ryan
town
inkludera
visby
lasioglossum
minimal
tecknade
kenneth
neg
kevin
tystnad
fries
tyr
##ition
##medlemmar
kammar
upplöstes
avkastning
gärning
##hår
geografisk
##ogen
##nack
resenärer
##ärt
rysslands
pinn
extrema
##cca
german
##anti
alban
ngt
andrea
abraham
inger
bokstav
##chu
kansli
riskera
fruhstorfer
oförändrad
rha
somalia
inrikes
##drick
##phora
##ophor
16-
##grupperna
arbetstid
plum
känn
##makten
##inne
offren
oxford
genomsnittlig
had
eugenia
##åtgärder
eko
kommittén
bibeln
##ales
krist
##zj
##.45
längsta
kajsa
amanda
##rp
##mängd
krona
verkställande
ponny
##förslag
##brunn
##kop
avlidit
##våning
befintliga
specialist
##llo
leds
killarna
##personal
stött
##mak
öppning
cyklar
key
utmanar
##motiv
varvid
##ping
medborgarna
småort
engel
helic
tyngre
##estad
##tioner
förvalta
##-8
miljöer
##hals
##plock
mjuka
##ove
##oder
sorters
roland
##cent
radikal
ratt
räntor
frihets
värm
dil
papp
##maskiner
oden
##chin
tidigast
undersökt
trycker
eskilstuna
##plat
company
inspirerad
turnering
##fyll
##ilo
vecko
##personer
syrsor
##eve
foder
anknytning
##gli
förklaringen
tagg
##war
anda
ebba
jordens
bearbeta
##tradition
nom
main
##mässiga
underrättelse
ålders
inleder
perfekta
egyptiska
författarna
sou
##itu
grupperna
förenkla
hallands
önskemål
utflöde
framsteg
tillverkare
slutspelet
##bordet
orsaker
##blir
tj
omöjlig
trum
arbetsgivaren
##tris
##försök
transportera
gymnastik
rin
telefonen
droger
tysta
capit
alfa
demokratisk
tillfälliga
##ista
rothschild
##oa
camilla
spy
##lyser
##ound
objektiv
##väntar
omvandla
##graph
investerare
popularitet
nyår
##officer
integritet
##pend
kandidater
mänskligheten
kassa
bed
##-08
facket
1844
undervisningen
##ierna
svett
stephan
juryn
##php
##part
byggts
##glar
meyer
intäkter
tillägg
beredda
format
pay
tveksam
##anthes
##oca
upprörd
1400-
##opterus
##avdelningen
##tjej
##more
citat
tillsyn
venus
föregångare
##ffel
##favorit
uttryckt
sparar
förtroendet
flitigt
##veckan
övergångs
ef
firar
marx
##tjänsten
kommitté
åkesson
demon
förnuft
gua
kabel
avgjorde
##körd
lack
##dic
##urg
teologi
rib
lasi
påbörjade
##klo
ggr
gibb
paketet
knäck
summan
asa
##satsning
##omma
book
tekniker
stationer
##arbeta
borrflugor
gener
snusa
online
axelsson
aggressiv
##toria
1842
luis
##hastighet
##åkning
diameter
granat
napoleon
larmet
kvällens
jung
##inidae
##iske
ilska
shanghai
##skriven
other
##bag
morfar
##skol
zoo
hellström
tillbringade
psykiskt
uniform
laurent
fk
scot
##yth
##anica
utsatts
inledningsvis
aero
barns
blåvitt
##fäder
##seftermiddagen
uppförd
lur
amy
brotts
birger
magnet
drabbar
rau
avslöjar
anneli
##ory
scopula
rast
head
##fonder
##långrörsbladlöss
wester
rai
adrian
domsaga
schltr
påbörjades
huddinge
low
##kalla
##pinn
rita
övertog
##kaka
##konto
##kvarter
ami
##gge
hipp
hom
##tvätt
arrangör
hörnet
##hundra
likheter
konsekvenserna
budskapet
##etus
människorätts
kopplade
tun
partille
parallell
ersättare
mei
bach
##stav
krossa
substans
hovrätt
friska
##erats
våran
övertyga
astra
släng
##rull
åtalade
höjden
given
##sci
fördjupa
öga
statsobligation
försäkrings
lägen
##500
tekniskt
jane
grundlag
##lagar
##iba
hassel
vänd
berlusconi
onda
sos
cara
charlie
anmält
pool
##ić
odont
dala
##versionen
##sjuk
ork
djurart
koncept
ödleart
##sarbetet
kai
professionella
anläggning
indelning
jfr
tålamod
uppland
ortho
tillvaron
frey
##europeisk
lova
##butiker
culicoides
##börsen
skum
elitserie
besökt
fäste
##buk
mottagande
elizabeth
ansvarar
maz
skogar
nitid
##ieri
web
17-
glob
roth
##alpes
97
åtalet
##lut
lönn
orsakar
mira
nicolas
stoppar
diskuterade
##hoe
tillägga
zor
##elin
3:
toronto
##ont
tillåtet
anslag
##artade
vålds
grip
koncernen
söndagens
##kvarn
##banor
upplösning
nicholas
landsväg
##kontroller
##vy
rie
##gud
##byggda
hämnd
kräftdjur
##regeringen
dream
stjärnorna
##rikt
timmen
pang
##när
##förhållanden
##mätning
flygplanet
##bun
resurs
bathy
philo
##avgifter
söderling
mänsklig
##runda
##ray
##thal
##iti
chatt
##tung
nederländska
tempel
stal
undrade
##kopp
burg
höjde
pon
##tävlingar
förmögenhet
sällsynt
utredare
nat
sköld
sträcka
gränsar
flock
rebellerna
rökning
drottningen
klot
##р
unikt
guy
##bry
förlossning
segel
##fru
tillät
##mig
##betyg
ober
globen
##sek
leksand
##åringar
symtom
tillhört
##frid
##ffe
diktatur
örgryte
6:
innebörd
astrid
fiction
queen
##ison
howard
landstinget
##cip
poängen
trachy
##strum
##fattning
sammanfatta
kapp
djuret
eo
##scenen
##teckning
##sällskapet
##affärer
osäkert
22-
blond
hämtat
##dragen
drogs
schaus
mellersta
konstnärliga
inspelad
pt
##mac
halvåret
##föring
tvungna
term
smala
dre
behövt
##borr
##lok
##myndighet
näbb
##ssystemet
uttryckte
ambition
säljas
pv
##församling
tol
society
placerat
##kunskap
dotterbolag
tackade
##sskolan
individen
biograf
målare
lon
tul
britt
pastoratet
tolkar
ideologi
##present
påbörja
platta
forward
melastomataceae
##ställningen
##hei
introducerades
arterna
##samman
##long
##dels
aster
nordost
1,1
bun
muskel
eurozonen
##anten
missions
bajs
räknade
gym
tunnel
lämnas
arbetsmiljö
personbil
kunden
andy
circ
##ller
omedelbar
##ledarna
##styrkan
förstör
alpin
##block
balett
videon
##mitt
##loph
flygvapnet
intensivt
##kle
ungarna
bevilja
##rek
hiphop
levi
kyla
indirekt
datera
acantho
behöll
##imp
kha
landskrona
maskiner
##lau
angela
befria
lamm
biologiska
drömmen
pann
##llus
hey
skottlossning
vitryssland
baron
hotet
brå
##ryd
##asia
stabilt
försöket
medaljer
rosväxt
begravd
##idens
trådar
##clad
crist
##bilen
##förändringar
orka
##lay
##â
säsongs
##förklaring
chaeto
åland
therese
##typer
flick
osäkra
hippo
vårdcentral
##krisen
fritid
##åke
##resan
innebandy
kanadensisk
homer
##dum
långsiktigt
kristianstad
##reform
feb
lår
nationellt
##linge
haag
##youtube
##uth
##cina
##onii
huvudsakliga
##thor
väggar
##seende
##mått
##pri
##mönster
##gua
0,3
##owski
##vari
##sfrågor
stimulera
ishockeyspelare
indi
häromdagen
maurice
falska
svep
tränade
##ifiera
wallin
skjorta
styrs
skönhet
låst
tang
förskola
netto
##main
##upplevelse
antog
illustrera
lönsamhet
intressera
yttersta
skriker
##rensis
##migrationsverket
curv
##alla
superettan
##kors
publiceras
amb
str
millimeter
präglade
angered
blicken
##sac
##stigma
successivt
##acantha
skrek
##lop
mellanrum
vald
utvisning
kab
justitie
bakterier
##maculatus
värda
##rån
processor
eleven
##uba
heden
simpson
mörkret
##lli
överlämna
sjögren
stina
republik
##ful
##tagning
ranunculus
##temperatur
kh
lettland
storleken
skruva
##lung
musikal
klättra
belägg
guardian
ändrar
stu
grundat
tapp
löpning
deutsche
##gett
röv
förtjänar
anar
brunne
tilltalsnamn
nice
satsningen
dömd
nöjes
grim
läggas
##atet
lööf
danmarks
##sammanhang
tvåan
förvänta
klädd
fifa
betalning
pojk
hett
bedriva
##cili
gale
sektorn
##ł
pasta
##ansk
världsrekord
napoli
##satser
fortsättningen
psykisk
##made
producerade
philadelphia
yngsta
##nnie
nielsen
robinson
tsk
felix
must
dich
##svart
##pot
acacia
vandring
sri
##opoda
vagnen
galet
fiender
skratta
ökande
debutalbum
meddela
diskriminering
##ställt
##anthera
ted
födda
##dl
great
card
##ologisk
förmoda
bebyggelse
##operatör
adels
hmm
##sättningar
rune
suger
story
anställa
antyder
finaste
##oderma
innovation
paj
##tyl
uruguay
ame
inspirerade
##stock
konf
förblev
##täckt
wol
##sphaer
kub
kro
##lampa
columbia
gryt
broms
uppkallad
shin
##dora
##end
racing
spåret
utvärdering
##fly
sammanslagning
länkar
elden
ingvar
chaet
##hä
konsumenterna
mist
hjälm
ordentlig
bibel
##dh
ank
dröjde
core
beräkningar
less
ljungväxter
avslutat
##trycket
##tonia
sz
härjedalen
nyheten
privatpersoner
livsmedel
arnold
java
skärp
##emo
gotlands
##öst
bergström
175
ramen
fran
avslöjade
dic
##tagarna
grafikkort
cykl
cambridge
statsministern
utbud
hanna
##laddning
hedra
avslutande
##etoniidae
kontakten
jämställdhet
dirigent
diplomatisk
##ösa
##inensis
##värt
##bos
##gjord
förändringen
##gårds
elm
##media
avlägsna
schweiziska
månen
livets
södermalm
##llan
möjliggör
fylld
svans
myt
flygbolag
uppmaning
utbildad
inlett
##aba
svaren
##fientlig
kolonial
alternativa
kun
##åren
frivilligt
##ograf
rödlistan
moms
##ç
balansera
ovanliga
avfärda
bruna
hysén
tyl
assange
##bring
ugnen
geni
redovisar
mör
assistent
##otettix
psykiska
sla
inneha
blodet
kings
##firande
mell
##röj
##panel
uteslutande
tox
##nära
ändrat
koch
##uni
betalas
##schema
rutt
insatsen
fixar
inledningen
skivbolag
alc
meyrick
plockade
dagliga
uppträder
##oper
##central
förlaget
nödvändig
samverkan
parter
##ifi
idaea
termer
miste
insyn
1-2
##pedagog
kå
plattmaskar
bah
02
##språkiga
##rap
##läsning
luck
##ärer
stadion
intog
trång
net
##sjukhus
dicran
year
hiv
##nden
corr
syzygi
bekanta
dyka
##tränare
diet
##kamera
##attack
seric
1300-
##emon
prosa
resande
självständigt
levererade
linus
inspelning
##icata
marknader
bolåne
retorik
plockar
simma
nacka
behandlade
låtskrivare
federal
##skåp
rov
handbolls
cos
följdes
##ür
försvarare
##olycka
gap
elisabet
##tillverkning
aktivister
bröllops
huvudkontor
motståndet
face
##cykel
domar
kvaliteten
demokrat
bildat
blockera
hårdrock
beställde
planta
##kran
##ines
##segrar
tränat
konstig
sperma
milano
force
medicine
##omus
##beroende
utlandet
regisserade
statligt
handikapp
förnekar
pom
bete
spegel
förbjudet
##fyra
##gods
sw
##görande
marit
rösten
eye
##konstruktion
tonårs
konstverk
röj
krydd
thomson
ronald
kuk
godkänna
##uro
belopp
landshövding
köl
##oon
rag
##bran
bella
förberedd
##grader
jason
##instrument
archi
business
femma
profet
ledarna
förstördes
hårddisk
##ild
1839
genus
mästerskapen
fångat
sena
collin
begränsa
grädd
misslyckande
##räd
##gers
försäkra
greklands
##äckvävarspindlar
vittnar
producerar
##rida
libanon
begränsat
israels
seat
##säg
hyresgäst
##chan
kiruna
grabb
sänder
##osphaeria
dennis
verklig
western
hirt
seriöst
##ligheter
montera
cirkel
holländska
schu
rutelidae
carlo
avslutar
##ytan
##dynastin
##etia
kirk
förutsätter
##pip
##chon
450
##rand
eup
gjut
##kall
##stycke
förtryck
##gis
##pension
##mannia
diskurs
brände
lustig
orientalis
rön
##pyrénées
stö
lördagens
indo
##haus
##aktiga
blåser
planeras
##botry
synas
definiera
##0000
producerades
paradox
##uda
avståndet
veronica
adams
pseuda
##odesmus
##odling
överlevde
##herr
colorado
##bull
erövra
förbjuda
##kommande
##pad
införde
expandera
producerat
kalas
##mina
pensionärer
demonstranterna
##icula
teknologi
gårdar
##blick
##utt
kad
återkom
träff
försvarar
anklagade
ferrari
luther
medlemskap
varberg
trip
riskerna
traditioner
uppfatta
##snämnden
kambodja
tonsättare
historiker
##tuna
beväpnade
förväntade
påpeka
misstanke
frivillig
nyanser
##ilus
##kli
oroar
processer
##lack
spindel
calle
##tyska
##sku
##arter
berglund
suverän
betraktade
förhållandevis
scar
##ordförande
##.6
stadium
snusar
hån
##sångare
ystad
megachile
offret
philipp
ovanlig
##carpa
##ställe
##boda
snett
ljusa
##väst
spis
##sverige
styrelseordför
reflex
hymen
terrorist
##molekyl
riksväg
folkmängden
studenten
byggandet
spåra
rollerna
evangeli
##king
##skräck
skulden
pru
flam
##arbeten
##snus
romer
mich
##rigt
claude
viking
gymno
terminal
inblandning
törn
##ault
kry
tätorten
hushålls
bernhard
kallats
stom
##driven
ves
stärkt
kapell
guinea
register
stumpbaggar
never
##soma
plo
upplysning
soff
##åkare
##utredning
cost
##backa
##....
lyn
elektronik
säpo
sjöberg
lagra
dro
bjud
döpt
administrativt
högra
##tekniker
##gent
dill
befälhavare
familjerätten
##400
trappa
drömmer
##kropp
tjocka
stoppade
vaccin
slovakien
eumenidae
rekrytering
skilsmässa
kommunist
krävdes
##spets
avgränsa
mind
fav
##cyph
jugoslavien
innehade
##ersättning
##lén
##sbrott
##mond
sjöar
hybrid
##konstnär
tvivel
anklagas
##osperma
##meri
framgångsrikt
dominerar
grädde
##grön
prost
marocko
varierande
kackerlacks
backade
åstadkomma
konkurrera
skåp
##pper
beteckningen
##tänkande
21-
##villkor
##scha
mittfältare
satan
förhoppningar
visum
rally
franske
##släpp
freden
utnämnd
kamrat
##alism
eklund
atlanten
sparka
marmor
merrill
##opi
mysig
uran
rasism
sporten
##iulus
##stylis
##kyl
livsmiljö
liber
vr
##faldig
##vallen
förbannad
glauc
speglar
ipad
kvi
tända
##anth
klocka
skillnaderna
danielsson
look
##imo
svagare
splittra
titt
piteå
1845
##lappar
##oniscus
cub
ingemar
##dell
stränder
##hat
förenings
mathias
##sema
erkännande
bedrev
scout
sammanställning
cab
texterna
kläm
bund
tenu
brodern
##pra
konsumenter
ursprungs
arc
glömmer
svarat
utfördes
ordföranden
##träsk
petro
klimatet
##språket
nau
##kunder
##nod
avdelningen
them
neph
kalendern
rein
trelleborg
malaysia
infektion
varning
##magn
##ace
##stått
passerade
lud
demokratin
care
bokstäver
gärningsmannen
bestå
anklagelser
##kusten
kop
death
gravida
blått
nyköping
slöt
ellen
##sön
vinkel
fälla
##fordon
uppfattningen
pacific
eng
fab
sty
##wick
genomgång
riktat
buff
kum
fb
fängelset
aure
##fun
##valv
##effekter
donald
renovera
##less
##nöt
samuelsson
sladd
##lf
geo
0,4
wy
cia
##trogna
##bott
sektion
##kins
båg
##skade
generös
echin
##ctor
ansikts
fiktion
kunglig
reagera
##tand
återkomst
värva
##spelarna
analysen
skälet
projektledare
resterande
##väck
ljust
##spark
utåt
varnade
##omys
värna
assisterande
##cnem
chir
åtgärda
2-
##operation
1,7
##hen
##acanth
##döme
rättigheterna
rättvis
riksförbund
##fat
##gångarna
0-
##yck
##osi
##thra
xen
skärpt
anfallare
##normandie
fältet
studerar
pekade
##varu
förstärka
##givning
##föd
fau
direkta
intervjun
abstrakt
##korn
##dik
countyt
kazakstan
chassi
rhod
sänds
referenser
jarl
##prat
propaganda
##soldater
flu
##värme
flyter
3000
rasen
landskamper
tävlingarna
varsin
##rud
##arbetarna
##assi
hämtar
cosmo
cockerell
##ante
skaka
väsentlig
länken
gräsväxt
thy
upprätthålla
leker
dress
##studie
gymnasium
tea
linder
finglanssteklar
tipsa
prom
##play
four
filmens
##alyp
dusch
sålda
symfoni
uppskattade
lab
utförs
övergripande
##kus
broder
lansera
vindkraft
smarta
break
1,9
##socker
##fjäll
##punkten
cory
skede
##kapacitet
##itation
skörd
pucken
##ospermum
kopplat
##ifikation
dölja
montana
strävan
specifikt
##föreningar
triumf
tess
elmer
christoph
analyser
namnen
##isen
ou
prestige
##lamp
venedig
##ono
tester
utsedd
kompensera
hr
anlades
revansch
##person
##rub
##kvalet
uppför
uppmärksammat
##mme
lila
##väv
##myia
##sorter
rasade
##bj
##nattsländor
banks
relevant
tes
luxemburg
utredningar
fabricius
##isca
##toppen
garanterat
svampmyggor
gala
gårds
tolkningar
russ
##problematik
cupen
sports
taktik
sparken
innerstad
brevet
##ija
##illus
horisont
clin
##onne
alp
stadsteater
midnatt
##salen
förbjöd
##bädd
gudstjänst
säck
hägg
lönen
##imi
förvaltning
ugn
manlig
rytm
##mbo
smärt
mottog
kristus
##dium
anthony
genomföras
gripa
ert
konkurrenskraft
pict
##medlem
kristendomen
ngn
begärt
##ekonomi
målning
snarast
lämpligt
styck
ordnade
vokal
abu
södermanland
ohlsson
yttrandefrihet
andrena
cigaretter
förflutna
kali
kämpade
helgon
##drar
##torps
strömmen
church
ceder
vändning
jämte
##opsyche
##blommor
kortet
utgång
##beredning
kunskapen
##hler
##yle
föredrag
1500
##profil
##jacka
ambly
fjäder
kortvingar
fotbollsklubb
thecla
regent
inloppet
lawrence
##rod
##mie
##låtar
stäm
kräk
utformning
sänkning
stre
##staten
samlingar
##slätt
##dramat
##piller
##prognos
uppstå
##ted
överlag
kompani
genetisk
tråkig
anklagelserna
liu
lektion
enlighet
##tillverkare
kanaler
förlängningen
sej
##gäng
agri
##sken
fött
##mästar
1834
mölndals
miconia
donator
quin
gult
valen
dokumentera
återhämta
laser
ingredienser
växla
rebell
sap
phae
boot
volt
länet
felet
klok
mexikanska
lepanthes
absoluta
sphaer
nann
##debatten
##löpare
remiss
fager
lus
förmiddagen
uppstått
stycke
statsråd
skorna
efterföljande
ovanpå
trevliga
##vita
förbättring
rönn
olagligt
claus
100-
tummarna
motorer
bryggeri
##drom
likna
##dåd
##cid
##kampen
ministrar
##zza
cr
bates
pott
tortyr
löften
##gymnasiet
tårar
genomför
meriter
##oxy
tillbaks
##mande
konservativ
riskkapital
skägg
##othrix
effektiva
nasdaq
stalin
skribent
1100-
ständig
##riv
frekvens
##ungen
check
##texten
siktar
after
trygga
##joki
beställt
only
byar
flott
retro
ragnar
##grå
skadorna
haj
##värk
mauri
stackars
skildring
förverkliga
centern
##guin
tillbringa
##posit
ekot
##hop
representanthus
spred
pung
##sänd
massachusetts
godkände
motorcykel
lukt
förlänga
kopplas
innefattar
##cm
bönder
flickorna
äpple
överförde
etniska
##ämne
österrikiska
golden
inbrott
event
##kanaler
räv
smycken
##marker
##abilis
renault
here
##uren
nykomling
pizza
ingående
dropp
höjs
##reglerna
diplo
striderna
pep
##enheten
slutändan
##samhälle
mäter
schack
##luc
any
##quin
passning
##ries
utgå
##aud
tuffare
fjärdedel
indonesien
ärligt
sexuell
skrämmande
sachsen
cali
trovärdig
sad
våt
##bryt
baptiste
kennedy
##åsen
töm
britterna
uppskattas
2-1
##stillstånd
äldreboende
uppfattade
förlossningen
operativsystem
##igaste
schema
##mara
låda
prakt
benämning
bruket
##havet
##höj
##uca
blanc
klack
iofs
klär
derby
värmlands
samlats
##kram
märkliga
sot
behandlingen
göt
225
##ocarpa
dicranomyia
mental
##srätt
dimension
manusförfattare
förklaras
puckelflugor
densamma
svenskan
självständig
förflytta
##product
gustavsson
installation
höjdpunkt
viljan
öd
jensen
vägbin
tje
##vandring
isär
pumpa
modig
obs
huvudperson
##kv
kvalificerade
##anläggningar
zen
avstå
dist
##mata
anställdes
onc
lokalen
##sburg
katterna
##vända
stern
lie
flashback
sandberg
tillför
filt
##manni
aj
phyll
stödde
slänger
keith
väsen
melin
##stone
dalton
renässans
blommar
wind
rhiz
viktigast
##låg
konstnärlig
feber
nam
baka
ständiga
äppel
sänker
##journalist
##modern
beskrivas
borgerlig
rösträtt
stork
alv
stavning
lastbilar
öppenhet
benet
##social
lagkapten
bildning
lerum
bock
rossi
drew
##karl
klostret
avsevärt
##texter
låtsas
klassiskt
##sjukdomar
##ike
kyrkbyn
##dentata
##dt
forcipomyia
##sköld
##ship
##kit
harmoni
symbolisk
utbildningar
skylla
upproret
##sköt
väsentligt
##kapital
anja
##siffror
koldioxid
papua
investering
##konsten
stödjer
dramaten
algeriet
##titlar
lanka
galopp
bangkok
##förd
mb
1843
##arne
ein
euc
svit
nedanför
##asjön
nöja
##tär
uppvux
individuellt
##kassa
uppdatering
litauen
##omo
about
##väsendet
place
##valen
nekar
kyrkobyggnad
skära
anklaga
##chal
blickar
regeringar
##göran
jury
##sexuell
##skifte
skuggan
lec
##psis
underskott
##medlemmarna
hoppats
##johan
knight
becker
belönades
skolinspektion
stab
näring
##н
bonn
kursen
halvleken
farbror
second
föräldern
##list
författning
styrande
dryga
skärpa
uganda
opposition
##graf
##evich
dendro
##witz
öva
##belopp
rama
##ococcus
elsa
tillståndet
inuti
undervisa
institute
benämningen
##this
##gölen
helgens
bada
utsätts
2-0
invandrar
##född
västsverige
walk
##processen
introducera
##cock
landar
born
##ppar
21.00
ätt
naiv
peperomia
##odynerus
bomull
ster
1841
##ž
##säte
benämn
saknades
kanadensiska
##möten
nämnden
##ology
##iko
alexandra
##utskott
##dou
age
uppföra
yt
aren
gracil
past
misslyckas
##utbildningen
##lou
##tillverkaren
tidningarna
avvakta
strategisk
tub
storharkrankar
registrering
penta
##kow
bränna
lp
plåga
relativ
slovenien
##blogspot
misstankar
ägande
tell
fläsk
##kanal
patienterna
motsatt
livstid
gestalta
mört
relatera
reagerade
africa
krogen
##punkter
bridge
ljungväxt
##väska
skugga
##god
tibet
praktisk
attackera
##vag
erich
musei
cac
cardi
våningen
storbritanniens
##sproblem
lute
översättare
accepterar
njur
rickard
folkräkningen
##dale
inträffar
spill
##gjorde
felaktiga
fattas
pyg
##wo
dagbok
uppvärmning
##bury
schizo
##isia
intim
intervall
buksamlarbin
##kommitté
##nivåer
ande
##sändare
grev
##skatten
utställningar
sångerska
alger
autonom
manuel
blandat
väga
##stift
##cyrt
niger
##othorax
pendeltåg
lindqvist
fragment
linne
lox
produkten
dow
grant
##kare
bam
##berga
1837
samarbetar
mvh
utbudet
tomater
ungerska
##fylld
4,5
sagan
dröja
##målvakten
##iseras
wright
nico
##artiklar
smed
kavaj
jobben
##arum
##strup
tyske
vänersborg
##illi
orkade
##skål
##itch
##fit
köpare
padd
different
##gp
roh
ifrågasatt
##märkning
hammer
stenungsund
sexualitet
missionär
bjur
uf
obamas
##snivå
##mätare
citera
välfärden
##ingarna
1835
##eux
långsiktiga
slussen
nyttja
spå
indisk
##sche
##röv
kliva
##singel
altar
kiev
samlingen
##stockholm
plikt
transporter
engström
passerat
frön
##ståndet
##alternativ
wald
kronprins
nordin
förbli
##tech
##burk
motsatsen
tillräcklig
välkända
flug
ambitioner
dragon
##oter
italiens
##rre
##onyx
4:
##jö
baj
european
daggflugor
conf
trampa
förvara
vitlök
landskaps
##porus
kw
föga
yan
panel
julen
hali
##åldern
gradvis
##ografisk
##uti
konserten
gefle
federer
hemstad
##idis
länsväg
öis
bladen
nicklas
inblandad
##idrott
##president
##ifolius
##bau
holmberg
##läk
octo
presentation
förefaller
##försäljningen
##kä
hahaha
##olyckor
##key
prima
schlager
##etes
##tius
##oti
blomster
kontroversiell
hj
ischn
hardy
##spira
skilde
nyheterna
quadr
värdefull
tunnelbanan
##unge
bedömningen
slutsats
##blomflugor
önskade
disciplin
nod
##aphis
öppnas
zan
parasit
dip
##koppling
sköldlussteklar
dansar
##födda
strål
fm
##städer
ljusare
tax
##orn
militärt
##blo
##img
nordic
##lager
näsan
championship
rosor
inträde
utsattes
medvetande
##jacques
##oka
jin
##kö
##olepis
regisserad
polare
hongkong
##isto
essä
anläggningar
##stöt
pit
asfalt
##vd
anim
instagram
principer
replik
antenn
vetenskaplig
olycks
jobbig
##vic
berörda
##ovitj
yi
färska
##lot
##yon
fjäril
##färdig
##användning
##ligaste
julafton
antiken
villkoren
muntlig
stängs
##front
sinne
föreslagit
sthlm
##trä
##bab
fjorton
framställa
##adress
3-4
masters
justicia
kriterier
mongol
##klimat
rhododendron
##has
##phyll
##läm
kollaps
gigant
##cz
##börd
ytor
uppenbara
elefant
slalom
jemen
##skrifter
jämnt
capital
genren
prognosen
hotat
##bot
lådan
arbetslös
0,7
spårväg
##henri
frei
beatles
brittiske
##phis
flaska
restaurangen
redskap
##otes
chrom
gitarrist
intäkterna
##л
mandatperiod
##regering
##modeller
straffet
hemifrån
skiter
##datum
rich
euploea
avbryta
täta
plantor
##ogramma
friends
dunk
framträder
läkarna
popp
kupp
medverka
mobiler
were
förbindelse
##ognathus
teckning
pensionär
smet
fordons
##zhou
##neur
apanteles
xeno
fabriks
phan
mördades
##pos
nederlag
##ril
##akademi
naturvetenskap
revisor
serveras
psyk
motiveringen
tottenham
häktad
besättning
ohio
##mord
författade
meteorolog
höft
##т
studs
##assad
akademi
avrättning
14:
feel
rider
nominering
tillträde
kopplingar
theo
lediga
fol
fum
fastän
supportrar
outfit
sum
nödvändigtvis
pm
natrium
knyta
charm
##hatt
förvärra
##opsylla
västvärlden
tjörn
nora
##esti
metafor
löpande
anställnings
quick
tagen
armar
##iserar
tragedi
##gräv
exp
##sajten
##fäst
##kritik
##sförmåga
rehn
##gärd
reich
friidrotts
märka
mao
järnvägsstation
tsar
##yu
##poli
elektrisk
arlanda
officiell
kemikalier
köar
entreprenör
lugnare
tina
strålande
invalde
##sälj
##opol
jour
##utredningen
##roller
vapnet
<3
sammanställ
bedriver
##body
##cut
analog
kärr
hets
rökt
two
1829
kalv
stram
##à
inspirera
psykiatri
##mail
embrik
förskole
byttes
cyklister
duon
barndom
strindberg
rafael
##guldet
balkongen
streck
##kassan
integration
glasögon
byrå
##kedja
styrkan
harold
1833
österut
##oserica
krit
##zh
nadal
pepp
nätterna
centralort
gråta
stiftelse
irriterad
##ptil
evans
stur
fängslade
fjolårets
stup
bb
annanstans
lindholm
testet
vettig
steklar
ukrainska
medelhavet
spelning
kommunistiska
##strategi
prognoser
judisk
hp
tillverkningen
slät
genève
belöna
syra
sandra
mediciner
arkeolog
##lena
användbar
släkting
moritz
##änt
måltid
kylan
värk
kandidera
##regementet
norske
skadar
antyd
rundmaskart
runsten
koncentration
##__
##ín
kreativ
kaz
##trix
flash
maka
imponera
stjärt
##sort
##assa
osynlig
##juk
aedes
måleri
inträffat
##läpp
protokoll
fingrarna
lagstiftningen
##smässigt
rip
##opod
tillvaro
jet
externa
##в
rinna
hub
spelad
##festen
##-9
##katter
illinois
kördes
trakten
##eric
konstiga
susanne
träden
##slog
##nord
kärl
forma
potter
giovanni
##rix
##lm
byggnaderna
##eda
1800
ronaldo
eth
oscars
mattsson
spårvagn
hacka
skyldiga
wikileaks
ombyggnad
##poda
##inspektionen
australis
fansen
huvudpersonen
rådde
usb
mäss
##>
similis
tillfällig
koalition
##information
##luft
##alus
pulver
isländska
whi
hushållen
##oppia
##jun
jerry
folkhögskola
oak
delägare
##erud
##lägret
jay
graham
0,6
skeptisk
hq
mull
##variant
kinesträdsväxt
kanin
laddning
##sverket
kosovo
kopia
jules
bh
ego
##stämning
##premiären
borst
dramatiskt
##givet
chaufför
##vest
palp
alma
organisk
cyn
feta
bebisen
lig
##avdrag
##lling
wir
##design
nätverket
cour
##partner
##ucci
handelsbanken
misslyckats
kyrkogård
subjekt
kva
blink
##moment
trupperna
säljaren
behärska
hawaii
astro
fon
lagts
årskurs
uppskattning
placerar
samspel
vänstra
##-7
medborgarskap
påstod
otur
följs
bistånds
redaktion
pack
skölj
uttalade
##hur
utsett
wolfgang
identisk
##sår
blodprov
##objekt
infanteri
margaret
kritiserar
slarv
##gie
##tura
##bella
##makare
domarna
smidig
samvete
##link
##middag
dessförinnan
evighet
härliga
##handling
natal
##handelshögskolan
##dock
pun
synnerligen
perry
närma
pressade
förklaringar
monument
mogna
molophilus
konung
##kungen
##cti
andro
interaktion
cigarett
hanterar
samsung
##stall
cash
##hor
policy
à
##time
straffar
ata
##git
##igheten
ryssarna
##skadade
demokraterna
vax
smula
gol
##ididae
##bba
samhällen
skapelse
timmars
normer
försvåra
##tänd
bubbla
möss
edmond
##läg
##ichi
##vittata
barndoms
:(
orth
##språkig
jong
##pump
städ
föreställa
##budget
3-
skynda
härifrån
översvämningar
wayne
auktoritet
svavel
kvittering
##foli
marco
dessvärre
sago
sydost
sept
sadel
##insatser
##kurser
khan
skadan
massiv
anledningar
analytikerna
carter
förklarat
prylar
##sén
##hydr
tryckt
gåva
vädja
hungrig
laevi
##gramma
hawk
fredagens
attackerade
numret
sarcophaga
##soni
sändning
##pac
##fjärden
##tavla
wes
##gyn
lockade
##truppen
##kärr
gänget
##zzo
##delat
android
tyresö
dröjer
adolph
volvos
##salt
##målningar
##øy
##stadion
lyrik
heli
öronen
stenen
äckligt
bosatte
kvitto
##föräldrar
##domen
actin
virus
motala
kno
##.20
##lät
garn
passagerar
##fyllt
alter
finansiell
01
komponenter
mik
sände
wimbledon
kartan
achille
poecil
diamant
effekterna
anc
##hara
##anders
varuhus
solidaritet
kommunalråd
förstärkning
förknippas
vika
##bay
earl
inspirerat
spekulationer
chloro
funk
##mut
sarkozy
##anstalt
fackförening
stimulans
##rol
testamente
atro
betydde
nedskärningar
13:
##aktigt
##mix
##ulation
##ml
kristdemokrat
##örter
recensioner
maraton
försvarade
stelis
rusta
behövdes
##pulver
tvingar
bromma
side
flygbolaget
slicka
tripoli
##pio
##artist
##roy
fonden
##-09
kanten
ringt
halvön
marcel
##butiken
##föraren
fredlig
##kommit
specifik
##trädgård
##rett
ekonom
campyl
valrörelsen
sålts
marshall
ångrar
stadigt
mexico
utnyttjar
##kalk
frågat
##sjuka
supporter
##book
##stämd
lak
hc
spontan
0,8
##udden
##frukt
##800
gang
österrikisk
välgörenhet
istanbul
oz
koreograf
friheten
##historiker
jamaica
regnet
##gaster
öresund
##ungar
##chell
##burit
kopiera
##inae
<>
ikon
rådande
sweet
ibid
##sporten
medförde
krydda
##thea
##skogen
djurgårdens
bekostnad
kvarstår
pyro
##yan
lucia
fabriker
canal
huvudrollerna
någorlunda
pennsylvania
raymond
##missbruk
##ssons
överst
blommorna
tågen
erebia
arrangera
erica
glatt
platserna
förbättrade
##rae
olaglig
slås
placerad
##litteratur
##säkra
lånade
möbel
hero
artisten
körs
teve
säsongens
##lepis
gina
pojkarna
dumma
##expert
tänkbara
##chis
motståndarna
svält
ojämn
##universitetet
##ål
fastställde
basen
asiatiska
orient
guldmedalj
irländska
falsk
jeff
gb
uttalat
stolar
gränserna
1809
pilgrim
##phila
##pir
##ologin
##elf
##kostnaderna
kunnig
willis
hei
satsat
fight
sned
knip
praxis
förhandlings
ble
##visningar
kruka
##hyl
peta
joan
besöket
trötta
ryttare
kortfilm
modernt
bidraget
##mura
skugg
överlevnad
budapest
##tima
räd
##sedda
##phys
behåller
fuck
synlig
hopl
utdrag
##olin
utskott
magasin
plect
##sell
omröstning
logik
kidnappa
ano
lyckad
säsongerna
fräs
erbjudande
bädda
bekräftat
ack
##motorer
mordförsök
hirsut
##baserad
reparera
göteborgare
aus
debattör
##inspektör
västerländska
stammar
georgien
kieffer
##sjukhuset
##färgade
noto
vakthavande
nad
##mätt
dif
boden
snackar
1820
winter
lättnad
reflektion
kvartsfinalen
##relaterade
tillägna
konstitution
kristin
nations
letade
presschef
##lådor
drivkraft
##thel
##ända
strålning
##ulum
##vilja
scandinavium
manhattan
##tull
väska
fördelning
##emia
rac
##synt
ståndpunkt
graviditeten
##mässan
pyramid
whit
hemlandet
##flödet
trovärdighet
komp
kritiskt
ödmjuk
häftigt
mg
ingång
salong
asia
psykologi
##ities
ägnat
bostaden
##gma
allan
utmed
stand
stundtals
agnes
rival
anis
##registret
samordna
förstört
##bed
bald
poll
herbert
optimal
blåsa
##vandra
statsskuld
stressad
##volym
##rörelser
giltig
genomförs
funkade
drabba
phyllachora
prestanda
begå
puck
##alli
##nå
##ledande
investerings
##försörjning
jacka
##tillväxt
##föra
pent
rekonstruktion
##tour
klinik
hyal
##knapp
beslutar
getingar
underteckna
mässan
verkstads
##sjukdom
placerades
##analytiker
vär
tronen
##förhandlingar
stickmyggor
sjöstedt
församlingar
vänstern
##iosa
skelett
vg
tänderna
ankomst
mardröm
bruno
radar
hemland
##riktig
watson
genomgick
löd
niclas
minskad
staterna
begav
varmare
planerad
kontoret
aleksandr
##kräm
##salong
magn
##hil
##reglering
##-05
##bibliotek
##oro
##asp
förekomma
1836
vetat
dylikt
bary
bål
buck
vätska
##pressen
tho
lampr
space
bestämd
begärde
glypt
##karaktär
uppfylla
##metall
exemplet
inflationen
vanilj
jaha
##historiska
##utställningen
läckt
utvärdera
betona
##touren
mätningar
03
##etik
mörkare
2,3
##motorn
kontrollerade
ärende
georgia
omfatta
bröstet
latinska
nässeldjurs
##gni
jär
##stuga
stång
leopold
studierna
sommarens
lärande
##gad
##rén
peng
##cit
lith
##nitrat
dylan
volkswagen
ivrig
cand
750
tillförordnad
pianist
scap
##kommissionär
upprättade
##eana
längta
spion
säkrare
vistelse
swa
sjukförsäkring
tord
påve
xantho
innehav
agro
hävdat
chapman
bevakning
erbjuds
body
rekordet
##von
besatt
enskilt
nedläggning
witt
yttra
buch
copa
odling
##ß
##lach
dramatik
störtade
läcker
ect
växlar
##arp
2020
aspekt
##filé
aktiebolag
granit
grannarna
slopa
billy
pappor
andliga
riktad
##lur
1832
nordafrika
förbindelser
##tidningar
reglering
ranunkelväxter
##maskar
motivation
tapet
##bö
kontinenten
utbyggnad
indie
##omyrmex
##klubbar
##jean
inredning
##kot
epok
##cana
amerikanen
möjligtvis
lyckliga
##acanthus
moped
beg
försörja
verkligt
chil
radi
mäktiga
campbell
avstängning
hagen
australiska
prästen
fitt
preussen
godkännande
utesluta
##konsult
vor
rhône
mjällby
lance
samtiden
svante
coron
rotund
selen
omdöme
##attacker
jättefin
gällivare
museer
surf
duger
balkan
skyddar
scania
ichneumon
medverkan
dödar
tors
##platta
nyhet
skötte
amar
källan
aeg
##fy
hoppades
farm
aden
##his
undviker
trö
individual
pensioner
affisch
laddar
kommenterade
utbredd
klick
##gate
##cri
pedi
##sommar
für
litar
gesneri
oljan
##siffrorna
reaktor
vivlar
norberg
prover
##ssläktet
##craft
boys
runtom
röstar
utgifter
sekelskiftet
##cam
pärl
växthus
##kyrko
läsarna
belöning
##к
##våld
##förande
##bevis
shan
magister
primär
värdefulla
sydsvenskan
##bunden
höjda
diego
härnösand
tofsspinnare
kristdemokrater
##ped
länka
##dubbelfotingar
mohammed
##kostnad
fraser
produceras
##tyr
##följande
##kedjor
ghana
örn
##såg
baksidan
##skön
hänvisa
promenera
äng
hut
rust
flat
varnings
̧
##båten
obscur
##metri
kvitterade
språkliga
asteroid
pilos
tunnelbana
##pers
regelverk
dådet
##chans
greg
västerbottens
presstalesman
ört
tsunami
libysk
2,2
privatliv
inbjud
poeten
schultz
samtalen
beta
nol
presenterat
campo
blandas
gräset
yama
##levande
upplev
##wiki
summor
förfall
anthurium
##uridae
bedömare
##husen
##årskontrakt
##turer
##team
manuell
beteckning
tidpunkten
avslut
evolution
poli
tunnelbane
frivilliga
vant
hier
##bereder
firma
##vänlig
smuts
mästerskaps
dalsland
livstids
banor
binda
utvidga
brita
interiör
donation
redovisning
sören
einar
lyssnade
hemsidan
gissar
intermedia
anför
limn
spotify
##diska
jesu
##svärd
självständiga
augustus
sjutton
spån
##olle
klasser
##ialis
##iens
mec
fjärr
ersätter
sjöström
##%
purpur
simplex
##pjäs
automobile
porsche
##starten
ringen
surt
fisken
lillebror
stoppades
robust
arist
##kam
levererar
domkyrka
heid
ove
sit
värdelös
##card
arbetsplatser
frispark
rudolph
hind
smutsig
palestinska
alarm
##villig
##azi
fågeln
##lever
##mode
##app
##materialet
acc
##matta
iron
hobby
skrik
påpekade
##phae
##odla
cooper
stewart
landstings
garden
terrorism
christoffer
gli
konkurrenter
105
cirr
trädet
emanuel
burn
syssla
##cott
dagstidning
##trade
##ämbetet
##bergen
brus
användningen
gel
leverantör
celler
##ochaeta
iranska
##vägg
definieras
njuter
##opteris
grilla
##lini
explodera
sonera
aron
##hän
uppfyller
##firman
dubai
wahl
paras
odds
skärgård
bedömde
pim
##formade
##grapha
kontrollerar
älskling
druce
fläckar
honung
gärd
##månader
##sprocess
arvid
lutar
drack
ammo
##metoden
##temp
##iata
##spindel
moderkort
religionen
##bygge
##läsare
brom
fantasy
församlings
mae
##mic
armarna
landskamp
##romantik
varumärket
kvarvarande
betalnings
livrädd
##anterna
sher
##chlor
##coccus
dipl
kemisk
konsthall
thyr
värdering
##lep
nyström
islands
nätter
räddning
##möss
brödraskapet
##kung
ange
höstens
återhämtning
pernilla
satsade
tanzania
##cella
##ativa
##illy
åldrande
utflykt
genomslag
nedgången
grejen
vink
##krona
studion
teckna
förnyelse
##vetenskapliga
##phyllum
otrolig
olympisk
parap
japp
klagar
##frågorna
utgivna
paraguay
delaktig
synonym
pjäser
släppas
konstruerade
generera
##tila
##sällskap
##kompis
raden
skaffat
##statistik
phyllanthus
kyss
##flygning
infört
##åker
leipzig
klagomål
gerhard
affinis
##rollen
stämde
##regimen
qatar
kyrkobyggnaden
cum
krono
extern
lili
##olata
##wh
känslo
försörjning
##talade
##chaet
stormen
åberg
rig
lazio
spi
##ridge
gisslan
mådde
row
skansen
##skapande
feministisk
##.10
##figurer
##musiken
cant
##д
basidiesvampar
avrätta
sexton
##scap
rehabilitering
damaskus
gigantisk
spencer
rek
zhang
##lagstiftning
xii
##ponera
förvåna
säkerhetsråd
##morpha
##cross
##chelonus
##merus
##arium
pussel
pale
##kronor
bestånd
##mare
utmaningen
bollar
##leb
åtalades
ändring
foli
##hundar
persiska
fastställa
##skribent
esc
teg
tillfrågade
##ambi
fernando
calo
##grepp
ballad
karel
##innor
cyclo
nutida
##halvön
woods
nöje
tenderar
universal
##ngel
bloss
##script
##lunda
putt
##mossa
världsarv
fråge
svaghet
flytten
##hk
besluta
verksamma
##församlingen
belysning
folkmusik
aphodiidae
same
mäktig
##såld
##bbar
folkmängd
torrt
2,4
##innehav
piss
##wen
sandviken
unionens
beundra
ädel
löpar
rökare
##pedi
flaggan
##fläck
##böckerna
hormon
weber
##mobil
chel
abborre
astronom
varvet
##rhin
bortsett
intensiva
##inte
teoretiska
välkomnar
rullade
##but
point
shakespeare
vicepresident
kärna
1,0
##terapi
fördomar
distribution
värvade
##riktning
torne
aut
##tunneln
##olof
##oso
##odactylus
##sign
ursäkta
##hom
hunt
0,0
beräkning
upplopp
ombildade
designer
scan
nacken
moderkortet
ansluta
facto
partisekreterar
##4:
##uria
##itsch
##plac
ingmar
statistiska
##amp
dosa
atlanta
fult
teman
motorvägen
##biljett
kampanjen
revy
avdrag
warszawa
##ál
amerikaner
dräkt
##cco
sved
realistisk
strunta
pionjär
##opora
##lica
barock
furst
avveckla
##mack
edgar
##republik
minnesota
ranunkelväxt
annul
##dagarna
##åkers
obtus
kännedom
inskränk
kraften
##shan
moh
förtjust
uppvisar
psg
##rista
krossade
butikerna
##spåret
chamberlin
hunger
##abla
##förbjud
evakuera
huvudroll
vattna
march
draft
##tåget
idrottare
##varv
##vädret
kallaväxter
buskar
fotografier
separata
##villa
årtionden
utvalda
lånar
spott
acu
bostadsrätt
institut
blandar
sättas
##axel
##tric
funderade
##musiker
öh
blake
skildra
pend
alba
pik
importera
galan
thing
##förmåga
arenor
##britt
pac
exklusiv
##räv
isaksson
##blandning
##pig
systrar
laptop
vy
befattning
##bundna
rollfigur
spreds
##cata
hålet
##opera
spir
cry
series
##elever
däggdjursart
hits
5000
##bostad
##gestalt
uppföljare
field
##kapten
brinna
åsk
glenn
råvaror
markant
iris
xylo
##höll
......
mäster
likväl
talk
svårast
uk
ankar
dressyr
klang
##champ
##anza
##cephal
börserna
ambitiös
tävlande
avbilda
kastrera
majorna
begrav
hihi
beklagar
västkusten
##straff
villor
socialist
##formad
stabila
dugg
västsvenska
utgången
behövas
robusta
komplexa
konvention
matematisk
##budgeten
##cup
##ställa
rörliga
##process
råkat
släppts
förare
hotas
grundad
lokalerna
heder
tiotusentals
ralph
syrianska
adoptera
gene
drink
eddie
azerbajdzjan
befrielse
spola
jimmie
störningar
soppa
##yard
##rike
komponera
##kasse
heat
gyllen
##meria
2,0
sura
buller
drevs
umbr
fyllda
spaniens
beatrice
ifrågasätter
producenten
palestina
##etto
kardinal
formosa
bemärkelse
kameror
##erska
##stark
rikets
blåbär
tonåring
sovit
testar
hapl
fingrar
##_1
gary
##meli
bios
linnea
##studio
landskommunen
ekholm
##bränn
japans
fläkt
orkan
fastlandet
acer
olik
vanligast
##stund
betecknar
##alistisk
schiz
##publiken
##förhållningssätt
their
valencia
mötes
##skillnad
initiativet
brass
shoppa
##iki
##desmus
överlevande
styrelseledamot
sip
grafisk
##balk
##arthr
kth
råg
tillverkad
##målning
where
which
nk
##zonen
förvånande
##hau
byggda
##lätt
överför
mörda
kak
##kvalitet
nåd
ensamstående
underhållning
##vanor
meddelat
norrlands
gad
##äpp
avsaknad
matlagning
##berättelse
betal
giro
stena
##mjölk
parentes
elektriska
festen
fus
skakade
dolich
dallas
suff
##fans
lanserade
älvsborgs
läktaren
rester
loew
##centrus
beskydd
snabbast
micke
moll
8:
arbetarna
revolt
lämpliga
förväntat
ragg
muren
##peri
##lac
orientering
besparingar
vagnar
##dryck
mille
isabella
##logen
##justitieminister
##inata
käk
rationell
##ägande
fotografen
tjänade
kontaktade
##verken
introduktion
furc
segla
usel
kv
plattan
kvick
gis
stict
fix
verruc
tallrik
svärmare
fästning
hornstrit
##lobus
splittrade
bänken
övertala
##lius
kombi
bräd
##styl
##dog
fam
ohly
sprids
formella
##kastning
sakerna
##hjälte
bostadsområde
##trans
##yk
dödat
##varning
1824
omgående
ryck
understöd
fastnade
raser
viasat
bind
##stolen
kreativa
##service
##inda
##-02
tigr
konstnärs
##kostnaden
associera
cornelis
engagera
påståenden
##plus
publicering
publicera
##uppgift
konsekvent
kännetecken
offra
peder
rymden
nordström
ampl
##iodes
midi
republikanska
muskler
##ovich
##arkiv
##fronten
argyr
järnvägar
coni
morris
##oga
##reformen
frustration
intelligent
kastrull
kapa
chal
undervisnings
tredjeplats
uppträda
bracon
##cincta
instans
kirurg
##path
##bärare
styrke
##idius
##amerikansk
lloyd
##försvarsminister
accepterade
##befolkning
olyckligt
duell
juridisk
trauma
##natt
tillverkat
dall
slängde
115
##α
poliserna
inverkan
ond
oskarshamn
##ière
gifter
skolverket
##lp
seriös
trafikera
teolog
blåst
dollarn
korp
temperaturer
ändringar
förvaltar
obscura
##palatset
##.7
##bir
ré
omnämns
grott
separera
mätning
jämtlands
övergången
##nie
kult
utökades
turnén
skrivbord
genomgående
##tol
history
##uchi
##sallad
tillsatt
dokumentärfilm
timmer
ålderdom
parodi
nominerad
bour
spelningar
##ça
kommando
rann
utspela
käka
##eme
crow
##ophthalm
dråp
visning
##600
halka
##sfären
frilufts
##storlek
påfågelspinnare
##ór
##pok
pink
leverantörer
##målvakt
bomber
slang
sovjetisk
laos
talman
etik
##städ
revolutionär
välfärd
##skinn
skeppet
verkan
##liberal
argumentera
##hausen
partiledaren
gung
##law
##komma
##ränta
bengal
omröstningen
präglat
foton
branscher
ansluter
1831
fyrverkeri
operationen
journalistik
##rutt
##urs
aktivera
madonna
fame
gynnar
dave
poi
##besked
nazist
skarpt
26-
föreningens
karaktärer
1828
##kling
noveller
belastning
initiera
franco
apoteket
##ände
##mekanik
sakristia
hedvig
uppskatta

##phal
saf
240
sti
optimistisk
tillämpning
aktierna
##troll
sträckning
fyrtio
sammantaget
pick
##itta
arrangeras
känslomässig
kup
tillgänglighet
arrangörerna
föreståndare
albanien
oavgjort
##room
camping
korridor
utses
märklig
plagi
självbiografi
ridley
##lämning
##benet
turkisk
##oporus
arkitekter
##skyddet
utnyttjade
pamp
##vand
##dyr
##lök
förpackning
ogift
övervägande
öken
gångna
hörna
##omgången
mj
##odera
##redaktör
framkalla
stoppas
##kök
##vänner
daily
##ogo
##iflorum
bonnier
belgiska
portugisiska
jennifer
##ivo
##dae
ångra
china
braun
attentat
initial
förhands
påminna
rundan
fundamental
##mässig
befäst
barbro
snar
efterlyst
##oise
##rius
sällsynta
blandad
betydelsefull
malloch
lagerväxter
bae
synsätt
##gjorda
sammansättning
inställd
misslyckade
rättighet
##procent
kulturer
odonto
bryn
kylskåp
slagen
coop
gou
##udd
1819
hetta
fängelsestraff
seglar
##sförsök
into
##nyheter
wikipedia
##utbildade
##bostäder
##vänt
##marginal
förhandling
0,9
##onica
##ophthalmus
spray
##aktier
principen
gottfried
##värda
repris
övergång
even
fastnar
slö
##krets
##mynt
utspel
maur
##golv
fullmäktige
understryker
russell
cyph
bredband
##stoma
gl
olycklig
fronten
##uga
ungdomsförbund
förväxla
radion
tillåts
##fjorden
parkerings
profiler
gissning
synliga
ockuperade
atr
bränd
grafikkortet
kamerun
börje
undersöker
anslut
speltid
norrbottens
##hid
muhammed
räntorna
fenomenet
avslöjande
##sångerska
pålitlig
radikala
begick
uttagen
##20-
blogga
rop
påtaglig
##teria
##obates
##poly
##ichneumon
##ochrysa
finare
habenaria
agath
##utställning
väljar
utmärkelser
cili
anpassning
testamentet
juridiskt
magi
olaga
maja
fd
genomgått
##ê
hypotes
##race
##kategori
mueller
slätt
##arkivet
gitarristen
want
emellanåt
cigarr
magisk
talibanerna
näringslivs
vincent
poster
clarke
##puppglanssteklar
tvärs
##yri
långsiktig
##:30
skruv
kejsare
störa
loph
##ipa
kammare
##drama
grundskolan
republikansk
##ā
sätts
mäklar
1818
bildandet
fal
pepparväxter
undersökte
moon
västerut
---
seoul
förhoppning
jordlöpare
datorspel
omfattas
games
hun
halvtid
##omycetes
##sidig
ansett
##dokument
##opleura
small
farten
lidköping
äggen
källaren
redovisade
begränsningar
##fynd
##släkt
lane
lägst
ug
krångla
förespråkar
sep
kalium
storstadsområde
##cephala
nyval
paprika
kista
kål
jobbiga
gru
katastrofen
mä
##kup
sjunka
berömd
yttrande
salomon
insett
bakterie
tröjor
arbetsgivarna
dansen
pull
##tornet
##räntor
terrordåd
##-0
##typen
biten
women
rhopal
valv
gruppspelet
spyker
28-
pad
##sunds
valeri
1815
##blod
##----------------
högtid
##odendron
agn
##inflammation
euroländerna
##ilj
hälsning
##göl
wä
phyllophaga
skrivande
komfort
landvetter
##plattor
##ozo
horse
##mag
##stans
diospyros
insamling
kontant
papa
mé
##konferens
elektron
krön
##inter
##områdena
hyll
lågkonjunktur
självklar
boxning
hjärtan
passage
##300
livmoder
culex
##färgad
napp
##uka
jaja
siste
leksaker
jämställdhets
bestäm
color
skulptör
boissier
lot
exakta
croc
lug
happy
timma
förbudet
justin
##atörer
##esis
skaffar
bärbar
internt
skandinaviska
##recht
sakna
##yana
bromeliaceae
keramik
arbetsgivar
sundsvalls
##onidae
##vändning
##jylland
frågetecken
modifiera
kostat
pterolophia
##strateg
##olit
tjur
utanförskap
meteor
##ophagus
betecknas
##kke
kreativitet
##~
koret
sekundär
tittare
departement
kollektion
kontroller
##mekanism
tråkiga
förkortning
dyraste
provfiske
##cchi
##idé
fä
skrot
##styrkor
##rita
styrkorna
kath
##dé
våldsam
krönika
martha
##striden
##restaurang
bestämmelser
godkänd
##länk
faktiska
ignorera
##vre
ideell
simmar
isolera
wr
turnera
##lien
rh
acraea
##tysk
tipp
kvalificera
avfall
sundström
pallida
murar
pornografi
lagförslag
musikalisk
##förband
miami
##ifiering
cpu
medborgar
snuset
kallaväxtart
meningar
sjuksköterska
gymmet
##strom
##cyklist
insatt
cnn
language
spjut
italia
##rapp
strömma
lovande
##coma
##aspx
arbetsuppgifter
alle
storstads
bekräftelse
mogen
pride
##pool
roos
##gris
##föl
foundation
##otrich
firas
säkerligen
##använd
hope
viveväxter
vampyr
mursi
ylva
##gränd
olympia
##anna
englands
oändlig
porslin
spänd
biskops
bring
andersen
orsakerna
lundström
##kap
ansöka
mentalt
hierarki
carpenter
taeni
förstörd
skut
stöder
raven
gard
cis
katedral
valentin
##rhynch
jordbruket
änka
förmiddag
tveka
akuta
pedagog
eran
etanol
förälskad
akter
akademiker
haplo
##stämman
filmfestival
hesper
barbara
##glad
möller
##spelning
##vul
##hui
läroverk
stängda
##promenad
##bälte
turism
perspektivet
##jd
##bben
knall
scal
mau
ericson
knuten
bergakungen
säkerställa
##begåvad
kontroversiella
socialtjänsten
hemlösa
förbättras
tillika
pälsen
organiserad
ogräs
##basen
delegation
krus
kärnkrafts
underhållande
##nål
åttondelsfinal
julklapp
shaw
nejlikväxter
santos
word
##tomt
sysselsatt
noterar
ingrepp
bota
ock
timo
##quet
dömde
belägna
##karriären
häckar
medlemsstater
kf
##roma
föreläsning
1825
neil
afghan
##oris
sammansatt
föreläsningar
bröllopet
volontär
skapad
frågeställning
biologisk
upphör
##egård
antoine
##fasciatus
redovisa
ekonomer
divers
upphovsrätt
##clo
förråd
nyckeln
uppförande
nationer
skådespelarna
tju
conrad
njut
odlas
återuppta
hasse
á
solanum
##teorin
nou
flöde
löste
uppfinning
raf
bäckslände
##däck
alme
empis
gruppledare
zel
##asplenium
facit
bergqvist
utnyttjas
shit
football
##metod
billigaste
radhus
##flyttade
felaktig
titan
firman
doktorand
utgivning
##långa
nikolaj
terry
tidskrifter
karaktären
råda
##brytning
kyrkogården
turin
##massor
360
förutsatt
vågor
mottagning
tyskt
aktör
tummen
europe
management
likvärdig
närmsta
skarpa
kiel
nack
##centra
telekom
##byggnation
ladin
##stenar
förtydliga
##rian
översätta
kärnan
dansare
kaka
vilse
109
besättningen
##brä
impatiens
sophie
egyptens
lantbruks
musikvideo
dagars
##personalen
arizona
meg
dublin
kärnkraft
snap
cykeln
stunden
charlotta
bagdad
siden
##ophis
uppträdande
##avgiften
.......
##räntan
humanitär
utreder
utgick
kjol
##greg
bostadsrätts
jordgubbar
tillhandahåll
bow
västtyskland
cyathea
##real
skräll
tork
##icia
##badet
främling
euxoa
##dömd
pist
mär
##centralen
ambitionen
blo
##trupp
semestern
jämställ
step
poetisk
marknadsför
##________________
djungel
golfen
##estra
##krat
##stern
##pag
striat
##kara
intyg
grod
##väger
##phragm
etablerat
##vecka
nackdelar
självklarhet
bildad
noterat
melodin
kärnkraftverk
vräk
intervjuade
motivet
##kräftor
##kommer
svalt
katalog
hållplats
rådhus
##tester
konstruktiv
rhe
monopol
kåt
##oplus
stim
vetenskapen
gömma
##vie
kia
allehanda
mitchell
torsdagens
sträckor
villan
berusad
överlämnade
skidskytte
##kia
scenario
##kum
översatte
inhopp
##slutspelet
catharina
thompson
2.0
fota
cir
kompakt
hallén
##emann
112
##phleb
åtvidaberg
rain
##region
##bön
individerna
herregud
brigad
##komna
kronofogden
santiago
romantisk
gigantiska
franche
##färja
vw
tore
goth
surfa
mobiltelefoner
##farkost
återgå
mästarna
willy
sarg
föreställer
fransmännen
föreslås
##él
brandenburg
grönland
förankra
ansökningar
##telefon
celeb
shorts
220
direct
smil
link
malar
vindar
##skuld
säkerhetstjänst
brinnande
##edo
främre
skadat
##obo
roberto
##situationen
##tack
småföretag
bolån
##rapporter
##rip
##snäckor
##kommission
sortera
friherre
agneta
cannes
##damm
vardagsrummet
leeds
oskyldig
högkvarter
tis
blodiga
numer
komplicerade
förorter
megal
relationerna
thom
sigismund
färöarna
forster
##ović
##balans
notering
blåste
vaken
uv
pain
##stämma
civilisation
skaffade
lamb
##kursen
ängelholm
arkeologiska
säljare
rovdjur
anonyma
molly
härrör
##barhet
uggla
##ventil
##bussar
värnplikt
michigan
vandrar
##skrivet
##radio
##saint
kändis
##thauma
gårdagen
sprutad
orust
stört
borgar
novo
anfalls
##escu
bonniers
huvudvärk
claudia
pannan
font
olivolja
anklagar
hoppat
bojkott
mördade
musikgrupp
spelats
ribb
avhopp
badrum
klokt
viveväxt
hundratal
##gott
true
##tillfälle
demonstrera
skotska
bönderna
##speriod
##hard
bryan
1816
##lampor
##berger
jordbävning
fras
##phantes
sok
onekligen
1826
övergår
##gjut
fiende
samme
vettigt
föder
körning
##uru
förvaltningen
filter
##delning
sachs
##två
##pelare
lånat
##gol
##talar
tillhöra
utdöd
taube
kelly
dioscorea
##export
atlas
letat
##relation
##agent
nigra
kritikerna
##plast
isolering
flaskor
placeringar
zam
gly
henriksson
rhodo
##möjligheter
öns
##utus
##historisk
##garanti
lastbils
arvidsson
redovisas
förvärvade
spiral
##båge
##miljön
diskret
##rusta
##>>
trilla
bolt
##kki
heltids
röntgen
##istes
passande
roberts
islamistisk
besiktning
ersättas
phaeo
kala
strig
bohus
##leuc
influenser
helge
torsk
##ugn
hua
##vida
glid
sco
nyförvärv
federala
flyr
beter
##redaktion
##ryckning
##usch
labour
accepterat
elfte
döv
ateljé
##tyg
silv
leddjur
skyddade
girault
##ime
jättemycket
sedd
##hamnen
klinisk
ardisia
kassan
##prövning
avancera
##zzi
insul
anfallaren
rät
##yama
cron
annexförsamling
kolleger
##säker
arga
##icans
carlyle
##ectus
sis
torslanda
engångs
##kroppar
##komplex
##dragna
##rib
bostadsmarknad
##stång
förbjudna
intellektuella
##sökning
krävande
tå
hyran
vinnarna
insidan
slideväxt
partiklar
##insektsart
recension
matthew
##ellum
ikapp
fotbollsförbund
strauss
smälta
höns
##order
##kontinent
##krok
nederländsk
löjtnant
kristi
eucalyptus
staudinger
##biträde
##begreppet
##listor
cyrt
##thro
##ippa
viner
stip
blyg
wad
harvard
##ulo
tavlor
lukas
curtis
opinionsmätning
##mae
##gröna
##iserande
##bek
klättrade
parkering
samfundet
stråk
montreal
##erup
##chir
dopnings
gali
##domare
partiledar
gramm
riddare
slu
utmärkelsen
smidigt
göransson
härom
##maria
##obolus
belägring
konventionell
drabbat
hamas
upplands
gif
filosofiska
rä
##augh
lampor
belle
språken
atmosfär
101
cort
##bränd
dramatiker
spinn
gut
##gio
moraliska
övertygelse
kortsiktig
danny
##palpus
##icella
thriller
antika
##kläd
##oster
lägret
ledigt
tangentbord
skf
##bane
förbättringar
##helgen
frölundas
xanthoparmelia
fixade
henning
jose
valfrihet
hein
taliban
duscha
viken
##komst
kb
legal
överlägset
vrid
gammel
##chrys
##ulina
rodd
##cilla
##summan
##toma
obehagligt
laura
##knut
enhetlig
isåfall
härryda
tarm
applåder
1823
colin
succ
falu
cephalo
omgivande
israelisk
uppfattningar
##ronia
förseningar
##igny
nt
hugh
tioårig
akademisk
trio
##rou
kämpat
godmorgon
atlantic
operationer
crat
##lådan
riksdagsman
2,6
fartygen
engler
ehren
case
astr
störning
##ès
knacka
ranking
försöken
sparta
kaross
norrköpings
##fönster
drömma
gian
##sym
cv
connecticut
##rima
förändrade
operativ
köln
australiens
utgivare
förändringarna
##ämma
##proffs
tyckt
distrikts
göteborgarna
ovanstående
thur
##hak
lärdom
##kund
hygien
##hart
rist
##väsen
hora
etnisk
##fysik
krigets
##kyld
progressiv
häktning
hof
övertygade
##lom
rufo
försvarsspel
frukter
brothers
##klätt
minerarflugor
cagliari
planeten
bostadsrätter
hushållens
källström
beh
ottawa
1790
angripa
##ägg
##angensis
stolthet
drunkna
fördelen
##aceus
##bou
1814
ömsesidig
myri
knulla
##rall
styrning
invigningen
##artad
##kanon
vargar
illusion
every
scut
lådor
##ibel
raff
servering
pedro
##näringen
köttflugor
helen
##botten
##ange
frisör
noggrant
serbiska
leddes
komponerade
elfenbenskusten
bibehåll
kvällarna
viktoria
bei
##shima
##punctatus
medelpad
##kongressen
##människa
tropiska
idrotten
slant
opp
chang
förneka
toner
##transport
keps
##ekonom
stoppat
##manus
fusion
##eborg
##idion
grind
oval
rikard
påstås
utsätta
skinka
semiothisa
förödande
##ochroa
diffus
fotnot
forntid
maximal
maskinen
inspektion
##stora
##glädje
mick
##ochiton
##summa
äldste
cola
abb
##-03
1810
pitt
##anfall
nano
cass
nejlikväxt
230
druv
gw
##beskrivning
mötesplats
hållbarhet
lärling
empoasca
##teckningar
tisdagens
sinnes
immun
sphaero
färgerna
stunder
phor
solid
awards
europaparlament
seriösa
avancerad
hygr
##läkaren
phyto
flex
dansflugor
effektivitet
##platserna
homal
##genom
sigurd
##ställen
##fiske
##ordnad
irans
giftermål
##otheca
##bund
gin
rebeller
sikte
market
xyl
##sköterska
##förvaltning
##klasser
agerat
skäll
iaktta
arbetslivet
säve
##vak
sag
##människor
##inho
konstaterat
desert
##hjärta
1821
##enstein
motsatta
basi
psil
dramatisk
förhållandena
pixbo
apelsin
förslagen
bränder
sortiment
socialistiska
##strecket
##moto
##staterna
mårten
obekväm
koh
##klänning
beskrivningar
krom
pest
essen
jordbävningen
charter
kommersiell
tillbehör
ledamöterna
spontant
förvirrad
systembolaget
1-1
vasil
##ortodox
desm
bokförlag
blood
ace
##-06
obehaglig
kvadrat
##smith
##påse
inställda
impuls
altan
genomförts
förstärkt
##21-
vassa
##ulidae
reichenbach
kot
centralbank
aktieägarna
skiss
##cancer
ån
mv
##baum
##stjärt
fienden
##stugan
##stådda
riodin
skridsko
##tecknet
##brygga
ideella
sharp
underläge
aniso
##barometer
införandet
shell
teologiska
generella
mycosphaerella
##puncta
##vänliga
##farten
islamiska
pek
##tänder
mynning
flint
##rong
trängselskatten
uppsägning
sovrum
ling
kontinuerligt
##skription
osmanska
##tekniken
elvis
##böj
##xo
##firma
##-25
antagande
terrorister
opel
förgäves
kammaråklagare
##ardenne
intention
alaska
1758
molin
löf
alvar
lira
fritflugor
flagg
nyårs
split
boeing
neon
anlägga
hjärna
##terapeut
##jj
bankens
diktsamling
älven
uppdelad
##kalas
toaletten
agla
schön
rörlig
##tröja
##hild
##tox
##aktivitet
stormakt
konkurrenterna
##galleri
bedrivs
lambert
palatset
##brook
##icaria
formulering
fasaden
smärtan
indica
nominera
ämbetsman
zetter
illegal
fastnat
plånboken
cephal
##grej
suga
komplicerat
lux
skött
##europa
plural
brachi
regeringschef
syndrom
modersmål
elmander
kav
##byggande
court
lincoln
huvuddelen
federation
casey
##kliniken
tillrätta
viset
huv
centro
ing
pepparväxt
tipset
bröts
utfärda
##kvinna
koncentrations
flygplans
sparrisväxter
orgasm
njutning
hän
valda
besvärlig
##skiftet
mff
mount
##förändring
helene
benämns
påbörjat
tonåren
##formation
undre
zagreb
kavalleri
kontanter
zap
loire
onsdagens
preparat
skin
vent
##undersökningar
##jäkligt
klartecken
##calais
förebyggande
serrat
subventioner
tillhörighet
apparat
##ansökan
cement
##gener
sysslar
##skillnader
garderob
5:
återkomma
klump
1812
hort
upprör
vera
besökarna
##väggen
rog
camb
ordnar
syftade
sekvens
ast
spil
språkrör
hjältar
fröken
##iscus
##gnath
amiral
dahlberg
##väggar
##malar
natural
dopp
exportera
##ligare
själen
omxs
kari
afghanska
omstridd
holt
förtid
nånting
förlorad
däggdjur
territorium
##server
##förbindelse
frä
apollo
##hou
tvivlar
grunder
övningar
livshotande
västernorrland
##öppning
##bell
sympati
vetenskapligt
oligo
elektricitet
färje
##icera
ballong
karpfiskar
skrika
##sperm
högskolor
uppdelning
ard
benny
bosättning
götalands
occidentalis
shah
##edal
##tramp
##räkna
tillgången
35-
tunis
##sväng
oskuld
moderata
fastighet
trion
samiska
mohamed
heliconius
protestera
##rymd
stag
knep
##kortet
förhålla
folkmord
##2000
rankade
phytosei
allergi
publicerad
##bildningen
##tyck
studentexamen
norén
1822
##skandalen
avrättades
trender
pandanus
tjata
bortaplan
stamp
angelica
övertid
fusco
##torg
eliasson
##virus
##hun
##signal
kronprinsessan
parfym
representerad
demokratiskt
järnåldern
angola
##dörrar
nobelpriset
##fram
kopplar
angav
hantering
rhode
eskil
trade
##hre
gripande
funderingar
lektor
##centret
symboler
##dammen
magiska
senegal
##nota
gubb
##samlingar
2,7
makedonien
nintendo
sparkade
stirra
lynch
agerade
pleuro
##kammaren
presidentval
##märket
anka
teckningar
##världsmästerskap
##sänkning
lösas
furu
individuell
##haj
##epi
ammunition
råsunda
turer
##givarna
bekosta
krim
##tekniska
##förmedling
nev
skl
exploderade
trick
snickar
nyttig
watt
##«
kaktusväxt
utförande
lime
##kritiska
kroatiska
mycetophila
ingripande
franklin
ersätts
återskapa
fixat
̈
gunn
##gödsel
grävbin
dicty
##konflikt
##numret
##jal
support
livslängd
hörsel
##operla
primitiv
##iver
lera
##skivan
##anläggningen
skattebetalarna
corp
pseudop
##rond
rydberg
harrison
##tolkning
slip
##onensis
logiskt
västervik
upplevelsen
##corn
ersatt
kastat
##sedan
kontrolleras
övergav
saussure
lögn
##gramm
##duon
stadsdelar
##odonta
advokaten
översikt
spårvagnar
kollektivavtal
##natten
##rapporten
måns
hartman
otäck
bevisning
flyget
truncat
##.40
makro
##ières
##strejk
región
moa
arct
slet
döptes
dödsstraff
utfärdade
glu
vintras
2,8
stulit
##mej
##kunnig
##agrion
ulv
ryske
fåglarna
primära
skotten
27-
anmärkningsvärt
mandatperioden
staket
björ
imorse
amf
inflytelserika
lego
hast
uttalandet
schle
##operan
skrämma
chau
tonåringar
hastigt
puy
pedofil
##ombud
tilldelas
rhin
##hai
2,1
avgår
schysst
misstankarna
vidta
brytning
konstruktionen
uttag
strå
återställa
småbarn
##onych
sultan
later
##myggor
hallberg
rörlighet
tempot
undvik
also
borlänge
anpassade
camponotus
##2,5
aningen
påkörd
drivande
grät
rädslan
täby
eritrea
##förståelse
tib
meh
involverad
##jel
anita
##eiro
okt
airlines
psykologisk
ahmed
myst
riksbankens
instabil
##dj
##franc
produkterna
betald
##röda
fjärilsmyggor
klassificera
##gårdar
telefonsamtal
konceptet
oroligheterna
köpenhamns
värvning
##termin
ryss
dekorera
ägglossning
vittnesmål
taka
fortare
fönstren
apples
journalisterna
rekomendera
passagerarna
##falk
##angel
##årsjubileum
##drottning
##princip
##brutna
överläkare
##hyra
pomp
##bruten
manifestation
underskatta
kvällar
avliva
tvång
##borst
bosse
houston
##hill
glen
reggae
uppfostra
##flytt
##opp
debattartikel
folke
beteckna
kraftverk
svartvit
föredra
välj
tillkomst
slem
rikaste
destination
ensamhet
image
samar
##cae
##hoff
##statssekreterare
feminist
vulkan
informell
##läggningen
##succé
återkalla
bostadshus
spannmål
##slagna
tveksamt
##cephalus
akademin
dimensioner
##täckning
vågen
andlig
##ögd
boendet
##oscelis
oviss
givna
porter
stjäl
utställnings
spridit
trågspinnare
lyckligt
diamond
lundby
aphan
##indi
rapportera
villig
utövar
intrycket
vrede
bosätta
charax
##audi
nasa
##delade
elaphoglossum
1775
nordens
##inii
motsättningar
peterson
##irostris
ey
blephar
terapi
##minnen
snabbaste
vedlar
basil
luer
##hua
##golvet
tredjedelar
peace
bä
##synpunkt
rättvist
pau
utskottet
##innehåll
##culata
ytlig
basse
##garantin
flygning
enskilde
##nitz
reformen
##expedition
evigt
lovisa
##tinus
hållits
##studenter
xy
##parlamentet
##ritt
tick
fasen
magazine
tippa
avundsjuk
manuset
inrikta
##boy
##light
utrustade
maa
bög
pinsamt
cassi
fackliga
fylke
rolling
udd
debuten
##blatt
##mini
##mill
invasion
sluss
gab
skönhets
plockat
stuart
monaco
logga
inta
kopior
nedlagd
tände
##sagor
##gloss
##demokrat
1827
benedict
lönerna
##uppfattar
betonade
##intäkter
komplement
pf
playstation
sik
##stämpel
oil
gråt
sträckte
##skylt
intellektuell
alpina
undantaget
##partier
herb
##helg
charac
##standard
förteckning
handfull
merit
##kler
##ifica
lima
zink
##-30
sec
##romersk
avenyn
lyfts
lagligt
latinamerika
homosexualitet
utlåning
comb
said
read
inatt
rey
##sändningar
sänkta
##divisionen
cyrto
fransmannen
thal
##koloni
##iphora
##listorna
återstod
##leder
nakna
##chaeta
##ocnemis
föreslå
##främjande
egg
schwarz
22.00
segrare
satir
runk
##bränsle
östermalm
gnist
flora
dömas
##finansiera
vrak
klapp
##saga
bagg
rekommenderas
återstående
bjudit
##torka
smit
antonov
##uttag
utkast
anatomi
nyberg
överlägsen
änden
##nier
hull
påhitt
argentinsk
granskat
##vila
överdrivet
lunchtid
hallå
praktisera
avslutad
bråka
distribuera
##video
hjulspindlar
direktiv
långsammare
järv
etiska
##`
nattklubb
ritat
slappna
sergej
genomgå
auri
beträffande
lap
##enheter
castro
kärnkraften
påstående
giftiga
##jak
airport
sträck
1789
##ocyt
ramos
emery
##trupper
aloe
måttlig
luta
##trend
träder
##utsättningarna
##bäcks
##daceae
##förhållande
##ebergs
##uppehåll
elf
yrken
spridda
överraska
tryp
målsättning
##ogyne
aktieägare
##volu
##iforme
lojal
norrtälje
atri
potatisväxter
gagn
##styrkorna
##hylla
kollision
##flex
schl
ekström
kraus
jägar
självklara
carp
modet
sökandet
kvitt
stängd
boskap
##kritisk
tokig
ruth
##bygget
balt
ringar
indiana
##8,5
officerare
ibrahim
illamående
hospital
nap
mördat
nutid
trängselskatt
anor
hexa
subjektiv
bankernas
joachim
##fobi
kay
modellerna
penicill
kulturell
sparkar
gyr
utlänningar
##volv
tir
fäkt
forska
potentiella
boss
tit
valutor
förbundets
ekologiska
koncernchef
röken
daglig
##ophaga
##ledningar
rebecca
dynami
isaac
manifest
##laena
##brottet
dale
agenda
fångenskap
##spruta
ängel
behring
vapenflugor
hob
sprungit
habitat
skådespelerska
##toft
##filosofi
uppmärksammad
##iseta
beskrivit
hills
##trätt
repertoar
skrapa
christine
##iano
upprörda
tillvara
skald
franzén
california
tittarna
alliansens
svansen
listor
touch
wat
##just
##parlamentariker
##gularis
resolution
##kärlek
palats
##solen
hemska
misshandlade
aspid
herrlandslag
knop
##marsch
grop
våldsamt
uppmärksamheten
kristoffer
springsteen
arrangerar
hog
amerikanerna
legitim
ramar
##marginata
långsam
##srätten
vardagliga
informatör
polischef
motsvara
sålunda
imponerade
spårvagns
##bourg
säkrade
uppbyggd
##kammare
##skyldig
maximalt
armstrong
kungariket
ellipt
mean
##anger
##toner
##filmerna
bryts
apost
feg
##amensis
adler
imponerad
##ophytum
civilingenjör
##rundan
cornu
minuta
skadlig
raj
##lick
##umba
inbördeskrig
framkom
austin
umgänget
fastighetsägare
vattenkraft
pseudoc
antibiotika
monti
##itarsis
##rath
##ostigma
sammanträde
dynamisk
##:50
goni
efterlängta
orimligt
abborr
##hults
##storps
vårdnaden
##fördes
##underlag
##gun
sammanlagd
troende
##hydraena
skadas
tillverknings
didym
putsa
porto
strumpor
därutöver
##censis
sammanfattning
atra
malta
##älskar
jern
nazisterna
##bile
##landslag
##max
tagna
alltjämt
hip
wor
##årsdagen
moderaternas
smörj
pach
bali
observationer
inifrån
junc
##othrips
vackraste
petroleum
##växande
tunneln
väskan
nätagg
gädda
##work
lyckade
smålands
ormart
##pilot
##tettix
instruktioner
##kompetens
dold
##kost
bromsa
##inlägg
cannabis
räknades
##öll
##oskop
##aktien
##dactylus
registrerat
kartläggning
stolta
trångt
##trakten
förstörde
##avsnitt
vägde
##indikator
företog
gerilla
##hielm
studios
jämförbar
vv
##ocladius
rask
graven
kladd
rhabd
##gänget
##usta
##hotell
lindley
##ändring
kallelse
##element
##pati
##apparater
upplagor
##medlet
hantverkare
##morgon
##visor
enicospilus
##månad
inrikesminister
väljs
brutal
explosionen
inbjudan
jungfrulinsväxt
påvisa
petri
hemligt
phoenix
byråkrati
rapporterades
tenuis
dai
fostra
talare
mesochorus
beskrivningen
intelligens
tugga
##chil
sits
vitamin
##zak
##eidae
förebygga
190
pekat
blunda
löjligt
##skådespelare
brännpunkt
bygglov
sierra
##uppmanar
ruiner
gaga
##ponny
##laddad
landning
nämnts
##ifice
direktsänd
övertogs
##ryck
krukor
potentiell
##podium
##kansler
crem
almqvist
romantiska
kulturarv
1808
scler
##fäste
gravfält
chin
maffia
vännen
schweizisk
värdig
forskaren
strul
abc
varianten
##entia
systematiskt
afton
barndomen
##störningar
josefin
smek
##porträtt
bevarat
##stugor
ryckte
##ï
##
##ovskij
anklagades
träningsmatch
##oglossa
skådespel
marg
inåt
##plattform
emp
ropar
flitig
1817
skon
fertil
##kretsen
##svamp
existerande
röstat
sell
snyggare
yoga
1000-
##utgåva
##côte
##ssjukhuset
bloggare
betydelsefulla
fögderier
deltid
förakt
##stadt
målat
vetlanda
fördubbla
abba
##loma
hota
resonerar
##-01
vigsel
##stigning
##licens
##ideal
##härd
##dactyl
klockor
##konvent
##ögon
miles
##kulär
##tapp
##ghi
##maj
prion
filmfestivalen
absurd
blackburn
våning
genomförd
frysa
##karta
spirit
zimbabwe
främste
nybildade
queensland
##skogar
##alensis
införskaffa
##ryttare
##oya
inseminerar
spad
lod
##ppo
klein
snäpp
arbetsmarknad
musikaliskt
liknade
hängt
soundtrack
think
tillandsia
dh
överföring
anländer
stabilisera
##lug
christensen
kokain
beräknade
blu
dognin
prototyp
mekaniska
pyren
markering
edmund
bearbetning
uppnått
visit
ändrats
bezzi
publicerats
bollnäs
osten
iskall
volymer
bildats
fj
svek
mjukt
påtagligt
separation
allium
##phryn
sååå
pedagogisk
##xx
##morph
##lucka
grandis
manila
gömd
beakta
bacon
##torium
##sundet
##hud
frun
kandidaterna
##oglossum
saknat
riga
försoning
child
stenberg
artisterna
domsagor
notho
appar
klassas
##chefer
##м
sean
clar
bundesliga
bälte
stärker
knott
kraschade
cerc
meningsfull
bourgogne
advokater
terra
##lägger
konsumentverket
vinnar
twittra
kartor
tropid
male
euphy
tillämpas
##cris
mentala
##öö
tillslut
skådespelerskan
##reklam
tillkommer
väte
##onella
##årsperiod
ekvation
besvikna
etappen
jägare
pallen
johnston
biskopen
årstid
kondom
deklaration
agu
sparrisväxt
tandläkar
sune
raketer
provocera
cut
cruz
##föreställning
aktivist
135
flotta
apor
franskt
##uki
secret
yngve
##effekten
dokumentation
sfär
haveri
academy
ferguson
tonen
##direktören
vak
stereo
diabetes
diskuterat
systematisk
framgångarna
utvecklad
katolsk
##ña
##tran
bäckström
##jet
existera
##third
etablering
biopalatset
avses
energin
kj
skrattade
##.8
##ianska
perdita
marion
tower
mejla
beskriv
konjunkturen
##biljetter
bemannings
upptäckten
skippa
uppgradera
förtjänst
självkänsla
too
utförlig
aw
chockad
##stenen
need
kramar
manuskript
väntetid
delstater
tryggt
integrations
långtids
##spect
crassi
xvi
##icism
laddade
##ylus
prof
decennium
ulrik
brasilianska
##reserv
falköping
##iense
##nerv
##plåt
oväntade
##veck
##kunskaper
varsel
öppnings
honda
dyk
penna
lepido
##у
sacc
trädgårdar
oav
##flottilj
korgblommig
ledd
roligaste
lub
könig
##ischen
lånet
rånet
snurra
naglar
##fördelning
hold
paulus
skäms
##ätare
inbyggd
broar
halvera
scho
trolig
försedd
cyrtandra
mittfältaren
björkman
badrummet
classic
##omgång
dothideomycetes
inriktad
roche
##pf
predika
moderator
provade
##viridis
reserver
opinionen
ställningstagan
##ektion
zoolog
##korv
##germain
permanenta
överträffa
##bagge
tillskott
diana
kraftfull
attraktiv
djokovic
grannländer
##ophrys
##konferensen
nic
##strålning
genrer
flygande
lecanor
tillsätta
evert
böhm
##mhz
omkull
##reaktion
##gill
lift
ögonbryn
##planering
anfallet
danskarna
##ulatum
1792
sliter
##kål
##mottagning
tjänat
amma
restaurering
nuförtiden
##yce
jacobsson
känslorna
##bevakning
##livsmedelsverket
##grop
komplicerad
garantier
steril
cteno
episod
slutliga
nancy
begravdes
oswald
##konstruktör
trumpet
upptagen
edwin
klättrar
brutalt
##drev
playoff
axeln
##vingar
yes
##inka
##rötter
psamm
strängnäs
flygplatser
anstalt
mcdonald
återvinning
##vinnare
fågelns
klippte
##utdelning
mountain
##modig
känsligt
guatemala
otydlig
ängsskinnbaggar
##hästen
likadan
glädjen
##omerus
##klor
fullkomligt
stadsplan
alfons
##löp
##kg
nationerna
##minskning
hälsar
##loe
##röster
##föremål
##bekämpning
thelypteri
rögle
sked
gille
darr
allsvensk
teamet
pilla
schelin
läskigt
florens
##leyi
##iller
isf
beordrade
##osaurus
missnöjd
bangladesh
graffiti
##atom
##ا
uppföljning
rubriker
##clav
förändrades
turnerade
åkare
##jakten
kissa
##arbets
##sprit
lyman
network
##skrivare
vingar
##notata
boplats
4-5
##berry
otalig
regnskog
##räddning
marseille
bologna
##verkan
förutspå
pectin
exklusiva
mic
moské
försvunnen
##informationschef
##blomma
##й
lorraine
nobelpristagare
morötter
fördelade
vårdas
##klocka
läcka
australisk
##trött
carnegie
smuggla
##stället
dau
##kawa
##logg
lida
hou
tillåtna
katrin
##försvaret
modernisera
dödsoffer
agrotis
##samarbetet
slita
upphöra
köparen
fejk
##ienne
gbg
trappan
tilläggs
strömberg
tenta
##panna
kemp
hellner
##ando
##öppna
målgrupp
##signata
kommersiellt
rättsliga
##otoma
arvet
##iderna
spänningen
susan
skyltar
##tidskrift
stroke
##sted
sud
beskrivits
##förgiftning
wow
##.19
##lösningar
speed
katherine
symp
baptist
ansikten
cren
##sekvens
lup
disputerade
kombinationen
1813
hindu
protesterade
##distriktet
uppmärksammades
höjder
laglig
förvaras
visningar
bärga
överlever
harvey
bakslag
##sökande
standley
kändisar
strömmar
wick
uppsatt
skotsk
saft
hundarna
galax
överföra
bergslag
tolkningen
provisorisk
ficus
ante
lehman
utformade
##illon
krass
kulturellt
ljungby
##ledda
befinna
kräft
självbiografisk
utarbeta
##oxylon
gamb
##dorff
referera
masa
##ometop
sextio
klubblag
##ikon
##orkester
##ilinea
framhäv
informant
##ebro
väskor
vågat
resulterar
pollen
utgivningen
johnsson
##åklagare
biografer
bakre
aston
islamister
kontinental
attrahera
maculata
squam
##maskinen
hök
trasig
önskat
labor
filmatisering
singer
frös
matta
##vett
##odidae
ideologisk
husdjur
wein
##kulla
konvertera
##sförhandling
moser
kråk
##skalan
##terminal
manipulera
##byggare
##procentig
talanger
saudi
högerextrem
märkbar
asta
##aktuell
galli
invest
kompensation
funktionen
följaktligen
gråter
juve
årlig
kopplingen
domän
hårdast
##aldi
misstro
ped
watch
##clus
kentucky
stökig
rivning
##wat
anteckningar
bilister
##cast
kompetent
vännerna
undertecknade
axi
lindh
##bae
rational
djurpark
tjeckoslovakien
##förlusten
regissera
södermanlands
källar
mycke
filmade
prefektur
fördröj
prinsen
ml
##knopp
vegas
##ministeriet
arachn
rörelseresultat
släcka
hø
pittsburgh
sundhage
tjär
fester
arvika
yoshi
kvarts
##stierna
floder
försäkringar
ingenstans
reid
tampa
uppfann
##motion
statsvetare
närvara
rf
##yensis
##bildningar
fästingar
1793
begränsas
kik
revir
lundell
träda
beskyll
yrket
ellis
euproctis
##begrepp
tight
påverkad
gömmer
preliminära
##moral
överraskade
##utbud
folkgrupp
pelt
650
införlivade
aff
comme
##varna
mtv
abel
bambu
##styrda
boet
##г
##paus
most
gripna
##iculatus
östergötlands
kopplad
##page
##anne
medio
naka
##vision
##spalt
##mph
clado
austral
##jug
sekretess
tillgängligt
##samlingen
överklagande
##kön
århundraden
entertainment
infektera
japonica
samlad
320
sifo
spegla
valley
##ious
elongata
originaltitel
söderhamn
utfall
puff
##gala
sammanhängande
##orhina
##ographi
##flaska
populärast
##vinge
##otropis
##korrespondent
##ubert
välkänd
godkända
darwin
uppvisning
uppenbar
##befäl
märkes
dax
rasande
försåg
32-
markerade
fals
strävar
##frekvens
störd
hood
sorry
dahlgren
aka
pirate
rycka
##fyr
7,5
statsvetenskap
hypn
tatuering
pud
fångade
refererar
återförena
lucien
##eilema
##mässa
##leria
lågpris
rhino
residens
siphon
kulturhistorisk
ljum
##two
utsläppen
bortgång
erland
##bble
illegala
underleverantör
bai
math
##litz
##jättar
producenter
olav
motståndaren
##icolor
invigning
##ochlora
##carin
##ité
##lsköldlöss
erbjudit
pappret
sofie
homosexuell
representerat
##division
##utveckla
klädsel
hälft
långhuset
fascinerande
celtic
##rinus
fruktansvärd
partistyrelsen
##gyl
binder
ruin
##spridning
detaljerna
appen
spilosoma
offentliggjorde
levnadssätt
##bänk
cerv
##scener
kob
##kapell
rapporteras
löw
patrull
excel
utseendet
rav
ewa
fuji
investor
programmen
engelskspråkig
hytt
närke
handled
1801
polo
spädbarn
abbot
minsann
102
##ated
fern
##inska
galna
##målare
##åååå
nål
kartong
bobby
komiker
ämbets
petersson
##hhh
inspelningar
släckt
cary
stapel
nive
cic
##täcke
##magasinet
korsningen
berger
förbränning
rapportering
nyct
bibl
manga
fördela
petrus
name
förlängde
850
uppkom
##chester
mullbärsväxt
clara
##stritar
kommunikationer
##ååå
arecacea
##medveten
vägrat
six
##alisera
lyrisk
plundra
faderskap
stötte
ondska
utökade
dyster
emir
rooney
orkestern
##iterna
sommartid
reis
humoristisk
maha
stich
ministern
mårts
skör
lopez
samlag
##försäkringsbolag
parlamentarisk
helger
103
rökte
glomer
##bloggen
##räkningen
kräm
ämbete
tech
hulthén
unesco
värma
##estes
##tempo
##menes
drepan
vifta
caesar
utreds
användandet
befolka
##vår
rhyacophila
skymt
väpnade
värnamo
brottning
atp
psykiatrisk
drive
austr
sexual
##pteryx
mygg
##ökningen
hotfull
innefatta
uttagning
insjukna
##applikation
proposition
modul
##djup
arton
gärningsmännen
magna
##angrepp
bratt
gräsmattan
studentkår
cym
##zelius
frilans
förebilder
chor
antho
avslöjades
husby
tyngst
attackerna
milli
vansinnig
matilda
paulo
glenea
utlöste
##sjukvård
kliniken
prägel
##kammar
bronsåldern
kapellet
stannat
varelser
löpare
##tryckt
kei
behaglig
missouri
kedja
sandvik
smaker
glider
ruben
##udi
##life
##rosor
behåll
svettig
##kalender
##lägenhet
laboratorie
##få
ungersk
##karin
##ophr
oregon
##sträng
wig
habr
riklig
diskussionerna
enklaste
samordning
motivering
psykologiska
nederbörd
alonso
##skolorna
##alba
tröttnat
markerar
##fici
underliggande
##läggande
spath
##domstol
##känna
förekomst
inbördes
varbergs
kollegan
passat
histori
grep
entreprenörer
fångarna
rect
##wed
##symbol
##frön
##hockey
##känslan
rosenberg
jordanien
adeln
earth
förmår
generalmajor
hundratusentals
förbundskansler
willem
skildras
osannolikt
tove
##saft
omhänderta
valdemar
medelklass
##calli
tranströmer
exponering
otte
tvillingar
stuck
vinnande
sorgligt
araneus
##broms
avslöjat
##kretsar
grundarna
fbi
graden
otrevlig
dresden
##ochromis
slagsmål
irriterande
medverkande
erkänd
utrikespolitik
anette
traktor
nybörjare
morden
verbal
##sinne
##verktyg
##dyk
spira
råvaru
##banorna
##skeppet
forumet
ingenjörer
fried
hudiksvall
##4,3
moberg
regera
kväv
parma
kirimojaväxter
gaddafis
memor
##acarus
xavi
rentav
##tä
mandel
stöter
catherine
bevittna
nickade
avskaffades
lyckan
##derby
20.00
ajax
mika
niels
redogör
##larm
##oderus
##stilen
bug
alg
chironomus
lyckat
##strålar
hälsan
rigid
förmedlar
basel
michail
spurt
klappa
räddar
ängs
##jör
experimentell
plut
sponsra
påtryckningar
insularis
##bygd
chart
geografi
1802
korttungebin
speedway
reducerade
##mannii
skaraborgs
förvaring
nba
matri
##petala
financial
splittring
silene
störta
chalc
tutt
tyrann
arbor
##onychus
##kameror
telefoner
veterinären
lots
jubel
slips
##kock
##ogryllus
diktator
tvåårig
fängsla
konkurrenten
##kei
systrarna
pehr
skadegörelse
byarna
andrahands
soft
schemat
justera
sprängde
##krypare
leslie
kvant
sagor
kunst
kungälvs
##alisering
attraktiva
##stadiet
uppbyggnad
matsal
deklarera
steen
##bollar
550
##pall
##hårig
tajt
drastiskt
fiat
##publik
##wy
##exempel
utsåg
pendlar
fabian
anomal
ritual
##kabinett
kronobergs
##viol
##byten
ultraljud
##soppa
vinet
dörrarna
estetiska
xp
privilegier
halter
pansarsköldlöss
receptet
ester
lauri
fredagskvällen
ropade
resp
##schist
larry
##ehållstillstånd
stigmat
barnomsorg
##forskaren
##actis
experimentera
detaljplan
##konventionen
kognitiv
##magasin
##dryas
hänvisade
installerade
between
susanna
marknadsandel
plötslig
##opyga
##eki
ld
grenen
##ispora
birk
cun
personbilar
count
##tank
lesbisk
pleur
egentlig
orättvist
##carpus
##gonia
förföljelse
lyk
stugan
##flashback
##.9
avdelningar
silke
dortmund
matsumura
häktades
165
##ispina
hembygds
sänt
tandläkare
bredda
fälld
ranka
exporten
decennierna
birmingham
döljer
judarna
##kompisar
##lister
hårdvara
##mär
mäklare
överfall
##artikel
ohälsa
förbrukning
svartkrut
##ipalpis
chips
##aise
##nej
överraskad
tratt
parallel
subtil
1880-
medvetenhet
esenbeck
besegrat
##arbetar
vispa
poängterar
koncern
gubben
##9,5
krag
##inervis
förkylning
calyc
fleming
premie
ämbetet
övertygande
##vetare
poker
plattor
barry
scop
kristianstads
sparande
grips
volk
förhoppningen
vägra
berättande
brasiliansk
tröjan
kapitlet
kompositindex
kamrater
dumpa
sonson
radikalt
lillasyster
neapel
nybyggda
ontario
knuff
maya
ingått
intag
påträffades
mälaren
regelverket
mikaela
skrota
3-1
kvot
snäckor
odlings
spana
##stödet
spark
slitna
invid
##genren
odell
fälttåg
mf
##mol
##täta
sajt
fund
##distans
köpcentrum
underlättar
##gall
tär
##tankar
zara
klockväxter
duck
flori
aequ
##vek
##efors
historikern
tillkännagav
godset
##svd
##bete
fjärdeplats
fångst
privatperson
kollektivt
violväxt
storlekar
spanjoren
odd
betydelser
väldig
##spinosa
miljontals
bråttom
##slå
eurytoma
mattan
##wil
##flöde
##yre
stuttgart
emelie
tjeckiska
skulpturer
helig
ward
geely
nycklar
hyresgäster
kommission
prövat
##skrev
##amerikanska
##skräm
skriftliga
undervisade
marknaderna
elliot
today
realism
andan
porten
phel
##omin
family
muhammad
konspiration
sparbank
tephr
4000
##view
jämlikhet
cyr
kraftfulla
thunberg
tillkommit
berättelserna
vadstena
peck
stereotyp
trogen
##register
##komedi
kork
##column
tuc
##sändning
dilemma
entydig
##verkstad
são
konstantin
alien
lol
gloss
överstelöjtnant
mästar
storstäderna
regeringsparti
begreppen
observation
omtyckt
##unionen
klyftor
konferensen
återhämtningen
##stadsfullmäktige
torped
sträva
##ivitet
riksgälden
skärgårds
##atrix
introducerade
lagerväxt
rasar
##melin
kamel
track
##aktiviteter
bita
vaccinera
eleonora
framgången
smalare
coolt
104
pressträff
##hämtning
stridsvagnar
atmosfären
djupet
lycksele
##zio
gåvor
konsumera
fordonet
##+1
##styrning
inkluderade
mänskligt
cere
##egypt
småkackerlackor
gubbe
jäm
##provet
##<
försvunna
mölnlycke
valberedningen
entusiastisk
reparation
oacceptabelt
äpplen
födan
förfogande
ogillar
walt
##duglig
##sofi
##00:-
godaste
hultsfred
##wal
köer
warner
förväntan
elle
nana
bulb
säkerhetspolis
triangel
isolerade
miljövänlig
grymma
englund
kriminalitet
##nikov
##sedlar
107
##setosa
nissan
##bomber
angelägenhet
##datorer
##propp
kronisk
##övning
##porella
##general
dolichopus
skärgården
kväve
inkl
utsidan
##näring
gastr
reagerat
champ
rektorn
##frö
recensent
makarna
byxorna
kommunalrådet
scabr
gravar
sjöfart
bayer
apat
efterföljare
entusiasm
förstärker
grekerna
nyfikenhet
karen
##mex
##ytor
swi
selma
teheran
gothia
tweet
omtalade
kansas
strindbergs
räkor
elände
damlandslag
rymma
anseende
licentiat
montenegro
##räcke
elaph
regnar
tisdagskvällen
späd
##risken
##stycken
signatur
svealand
udinese
ljuger
aktörerna
nees
nånstans
gubbar
##itia
##klinik
tycke
ideologiska
##klockor
kondition
industriell
##meters
bashar
##oux
hollande
filosof
amnesty
##konsumtion
reservatet
portfölj
beräknat
grått
haven
kryddor
peugeot
##indelta
vatt
djurgårds
uppföljaren
##lineatus
##korg
sponsor
##bukten
dasychira
onsdagskvällen
thörn
hyresvärden
brittiskt
ogilla
##brå
passet
oroligheter
##siffran
barangayer
hetaste
cran
gnagare
##akademin
##hållande
stenhårt
##odiscus
regnbågs
onödiga
adrien
##crypt
famn
##bjuder
##stiftelsen
reli
musikalen
centralstation
dömda
##debuterade
these
106
antag
raz
##vågen
##arrangör
grin
1803
fikon
gräl
lurade
lobby
tullen
##oxi
myrmec
tejp
oppositionella
psalmbok
innehållande
ub
mobbning
reaktionen
blodtryck
##opidae
socknar
project
bekymrad
##odina
åtalad
##krog
bjär
own
benämnd
bytet
anhölls
##träna
geijer
##arbetade
uppgörelsen
inställningen
maxi
##assistent
pix
överlevt
puerto
##olaimus
friskolor
betyget
minderårig
resonera
glädjande
armenien
jättekul
repliker
change
bastu
landhockey
positionen
hoffmann
dolda
anlitade
källare
hälsosam
knyt
utgångspunkten
lagerlöf
##pong
irländsk
åldrar
##foder
##wich
sekt
nordirland
bahrain
sjuksköterskor
utförd
129
gryning
oenighet
rho
kaniner
##zii
oecd
bird
##automat
##läggare
försiktiga
trötthet
##pierre
skuldkrisen
örlogs
folkliga
##cheil
antagit
##dop
cox
##skala
etikett
granul
dåtiden
originalet
dubb
plac
##påverkan
##kommunikation
samfund
pheidol
industrier
inletts
sever
förskolor
jokkmokks
frisyr
1806
mamm
gottlieb
zürich
stenhård
sob
powell
religioner
performance
besittning
dominans
##kooperativ
dejt
hjälpmedel
stolpen
##svampar
##kind
sannolika
karlskoga
##rester
hannover
##streck
klädda
resterna
uppdaterad
##skuren
fallande
melitaea
avslappnad
##notering
användaren
halm
alta
stenåldern
brutala
hindrade
gestaltning
britten
##regeln
trippel
skådespelar
##vant
precision
bristfällig
påminnelse
picardie
utnämning
lyck
målskillnad
formell
franc
flamm
advent
bagaget
bomben
both
##beteckning
lockande
naj
inspektör
schumann
bukt
censur
symph
rånarna
stuga
romeo
reed
massakern
trach
##iansk
##000:-
översättningar
färdas
bü
uppkomst
tachy
batteriet
mirakel
slavar
##älv
##stolar
teoretisk
forbes
##holt
kut
arvidsjaur
abdul
felder
holmgren
oas
byten
avbröts
uppslag
förberedelse
debatter
korsar
##riot
akustisk
##leverantör
##höjden
papill
stammen
överklagade
hastigheten
louisiana
##odus
kriminell
##ý
repetition
representativ
päron
mönstret
plugg
övrig
why
##levnad
hästkrafter
berggren
handläggare
##gevär
##flav
##framgång
valutan
mongoliet
horr
lektioner
mössa
##starka
##ångest
inriktade
uppgången
torsdagskvällen
samarbetade
tvärt
omöjliga
kiosk
övervikt
##zell
##rack
rimliga
konfrontera
salvador
skapandet
affärerna
imperiet
128
mom
##nsis
##ocharis
##liters
örter
##,00
hagel
läsk
corporation
yvonne
narrativ
##,25
late
narkotikabrott
redaktionen
##spänning
storebror
scor
##bärande
barnfamiljer
magic
förläggare
briljant
cemetery
sicilien
sg
arbetsdag
##väldet
vittna
kränkande
gött
##ecki
likadana
utvisa
macquart
lindriga
milis
nämnt
3-0
mekanisk
tupp
etiopisk
mozart
betoning
empirisk
tunt
malac
tvättar
ögonskugga
##störning
hoff
individens
fisher
108
hygglig
##styla
skakar
huvudman
##veteran
lange
##anthidium
kokt
flenörtsväxter
##asso
låsa
bremen
regementet
##lès
lew
rhamphomyia
##snedsättning
svensktoppen
befordrade
plank
unna
laddat
nationalekonomi
världar
trakasserier
lycaena
skörda
##intresserade
målvakter
lojalitet
vetskap
måndagskvällen
medelålders
tolfte
##regel
##jurist
##säter
effektivare
rikedom
sockenkyrkan
sick
oed
smälter
utvinn
newcastle
maximilian
inspirerande
sorgmyggor
botanik
##arkitekt
värdighet
geografiskt
270
blodig
helikoptrar
instängd
frustrerad
alberto
##brink
##ricus
bedömningar
motiverar
vek
##ū
uppskattat
curran
parkeringsplats
##mine
livlig
battle
bebodd
rack
jättestor
segment
aqua
makar
leonardo
1805
östtyskland
english
trag
##screen
tragiskt
väktare
xiv
klippt
aids
skanska
education
överväga
##ocybe
##sägelse
ofarlig
##ariaceae
tidsperiod
andraplats
obliqu
kränkt
kaliber
draken
##omantis
fysiologi
arabisk
vikinga
sovrummet
ersatts
1811
week
finansministern
avsikten
##1,5
stolen
kurator
##bedömning
##п
räckvidd
tolerans
145
bunke
tränga
hemmamatcher
nationalism
vänja
bordtennis
##smöjligheter
mustafa
##operatörer
fag
##kvinnor
återförening
påminde
vävnad
##utbyte
mimo
##pott
pluggar
tårta
lavin
##regemente
##arps
homoneura
sänks
##kross
äldreomsorgen
producerad
styrelser
helina
pion
blödning
server
idioter
hårddisken
š
##sånger
högern
brakvedsväxt
##svans
massiva
nystart
belgrad
målningen
ornat
lopho
ryttar
översyn
marginaler
beviljade
##krasch
##skaja
offensiva
phytomyza
medvedev
##fadern
fredriksson
turbin
caud
politikern
campt
lördagskvällen
rullstol
lycko
kedjan
preliminär
vesp
##smuggling
aja
intrig
helio
sågverk
entrén
##pub
holmes
gaz
alva
gregor
sunne
vargspindlar
missnöjda
rådgivning
##delad
##uthyrning
scol
musselart
tennessee
erövring
dominant
##familjer
##trän
membran
änglar
strejken
mottagare
inrednings
bönsyrse
barnmorska
##trädet
avsåg
närmade
utvisad
##ordföranden
larmades
färgade
##osticta
skapande
listar
casa
##=2
cirkulera
återupptog
##cora
##alismen
##snurr
westwood
fahl
##tröjan
##iferum
##fördelningen
automatisk
grammatik
palermo
produktiv
samlingsalbum
rejäla
ferry
grästrädsväxt
schefflera
foss
årsmodell
valfri
fullsatt
bakifrån
avgjort
jucea
lurar
beordra
##.50
varumärken
jurister
5,5
fackförbund
masdevallia
britta
skänkte
glabr
arbetsgrupp
##vål
##aldo
uzbekistan
moody
fingret
diskuterats
polispatrull
kirimojaväxt
trop
avtjäna
bokat
##ordet
##werk
angränsa
salm
sändebud
##fastighet
dactyl
##valtningsrätten
pågå
uppskattad
gardell
reportrar
stycket
malmberg
mystisk
##sparken
materiella
##ocoris
träsk
hui
rhyncho
marinen
nyfikna
rwanda
##opti
pendla
reta
lokalisera
hämma
##tomus
##uel
könen
stjäla
##union
asylsökande
sannolikheten
dygd
##skandal
tidvis
##läcka
mez
vertikal
parlamentsvalet
nyttigt
##ection
simning
lennon
knöl
##ägar
##täthet
##årsdag
gibson
##bygden
##lash
micra
häftig
giv
martyr
databasen
leconte
michelle
säteri
pärson
struntar
pedagogik
afrikansk
wide
professur
oändligt
dittills
klotspindlar
yng
##där
klockren
haglund
mittfält
##otti
hexatoma
nordligaste
##atorer
sollefteå
##hoppning
halvvägs
##sektion
knappar
bräcke
##brytare
##cinus
##egenskaper
utdela
unicolor
vintertid
wenner
bekvämt
konstmuseum
regina
##tjärnet
körsbär
pedagogiska
##lyssna
##olyckan
avsett
kroppslängd
##korgen
cold
moraliskt
barnvagn
utförda
##vard
keyboard
##tolk
twin
ortnamn
kollektiva
lc
##phaonia
aquitaine
slutgiltiga
##oge
3,2
1804
stadig
explosiv
aphel
grönsaks
belgisk
antologi
tång
sollentuna
kungsholmen
ansträngningar
##loire
såå
sånna
ridsport
snäv
relevanta
krypa
onödan
scaph
hertigen
fryser
irisväxter
##teleskop
hedersdoktor
nixon
biologi
##theridion
##face
romarna
ormstjärn
stred
##ative
halsband
sigtuna
mitr
osäkerheten
utspelade
skriften
zeneca
spricka
contra
strat
spränga
pingst
##walk
mandela
114
visuell
sopor
restaurera
moderklubb
anföll
sjukgymnast
##omya
channel
##bahn
deltävling
djärv
jäv
egyptisk
spioner
##metrar
lukten
pustervik
##forskningen
minimera
poul
motiverade
främlingsfient
uppfört
torkar
religiöst
##glans
populärkultur
aggressiva
finlandssvensk
sambandet
##hercegovina
jitex
störtlopp
allsång
handduk
tek
##cuspid
##förhör
##pakten
belasta
##asien
##alliansen
bokföring
##facket
diakon
applicera
kvalspel
adapt
##kille
investerar
nörd
fästa
xu
konsol
variationer
iowa
garnison
##fusca
##fängelse
databas
biff
##pid
rumpan
##dörren
nackdel
fiol
influerad
tävlat
etymologi
lagring
vistades
##nivåerna
teodor
diktatorn
##jin
medeltids
constant
birgit
deep
existerade
auf
matematiker
råka
##borough
välstånd
##dragning
orderingången
baseboll
utbyggnaden
fontän
geting
kapitalet
medelhavs
rex
driften
rikspolis
bluff
pocket
spottstritar
tillfällighet
##trappa
##appen
fritidshus
mime
kolhydrater
bux
tungvikt
axlar
nationalmuseum
svalna
lasarett
anmäl
protestantisk
gregoriansk
pedersen
långhus
khal
economic
##alförordningar
##kämpe
yngste
straffområdet
rötterna
gevär
tusenlapp
echino
reguljär
sumatra
##pä
##andi
##socialförsäkring
amaryllisväxter
##indelning
grobladsväxter
rubricera
yun
##vapnet
19.00
utvidgade
##ocalyx
verkat
upptog
konungen
drake
vinruteväxter
salpeter
teoretiskt
helgerna
kylig
framhöll
cohen
bosatta
kabul
klaus
##fördraget
chori
anatol
saw
migrations
utbytt
commun
1807
snällt
kungahuset
sommarlov
hållbart
##påsar
teng
##4,7
leucania
språkbruk
##,,
123
västkust
bortamatch
##1⁄2
poängtera
##trål
bard
borra
challenge
förekomsten
emilia
##,50
##osporium
tyskar
översta
##skorna
smultron
utomstående
starkast
berberis
skikt
anklagad
musikern
columbus
strept
sydlig
##kuriren
mittfältet
ribban
marknadsföra
##spann
##hold
virgin
sandström
##lyssning
finansieringen
mördad
intar
moldavien
verbasc
mutor
styrt
sortens
##uppsättning
fördelas
beskär
empati
utkanten
lekfull
burit
fletcher
sörja
##tillgång
vallokal
bestämda
##ellina
anom
##itiska
ögruppen
avvikande
philippi
inflyttning
nyans
##osis
hanteringen
fortplantning
delårsrapport
kikar
metop
nationalistisk
anpassad
##hang
prisklass
##kult
kloka
##ledamot
skalvet
##anställd
godkänn
##häv
##lix
utlopp
paraply
återspegla
alster
ifrågasatte
ledighet
pleurothallis
helheten
model
redigera
##tvist
ironi
scandinavia
seine
##övningar
##core
läppar
högste
rutan
virke
nymph
häktade
hebreiska
vartannat
synvinkel
kalender
tillföra
korrekta
##otricha
##vitamin
tvingat
fusca
kommissarie
morot
snyltrotsväxter
118
##flaskor
##ständig
amaur
utrikespolitisk
##ogorgia
tipsar
regeln
östberg
fou
##syfte
fiss
##revolutionen
##andan
mund
##kuddar
boul
6,5
##kakor
##medvetna
1200
orientalisk
investment
##komm
##maker
funktionell
gruvan
##uppskattningsvis
lasio
##havande
skryt
bränner
##transporter
##ostachys
numerär
##style
knappa
göte
dolicho
castane
##gator
cyber
islamist
förnybar
##feber
begravningsplat
båstad
haematopot
fredspris
muslimsk
##drivande
wikström
stadsdelarna
misstänksam
blomstra
minoriteter
1794
geolog
mello
##prim
##designer
torres
luzon
jal
##anpassa
##wing
##rutan
mariestad
försiktighet
strömstad
flenörtsväxt
kaxig
##annonser
tabletter
underlaget
##vetenskaplig
sliten
informanterna
forest
abbas
rättslig
nak
##spinosus
lama
samp
grey
showen
##führer
##sförmiddagen
##bildande
ship
fotbollslag
bactrocera
folkhälso
rhen
greppet
mississippi
113
publicerar
vilo
helvetet
##yran
serve
dispar
sjöfarts
resulterat
västlänken
certifi
korg
sistone
##äld
##rog
##б
smittskydds
vintrar
##hyttan
##partierna
amerikan
glasgow
originell
##säkert
damerna
sverker
##fasci
samråd
provet
segling
definierar
trakter
palestinierna
##peza
##dimensionell
östgöta
storhetstid
##fonderna
verm
negr
grundserien
angul
hyresrätt
occ
rasistiska
förvåning
fläkten
clu
session
##slinga
##uppgång
robyn
##limnophila
pole
lg
malay
inbilla
solsken
nathan
artur
tacksamhet
##-21
##attentat
lyr
##tillskott
knutsson
development
study
sibirien
appel
##ozetes
påpekat
rapporterat
dory
##bé
mourinho
nathaniel
förberett
utah
percy
antarktis
meddelanden
utrymmet
brock
##emus
ockupera
biljetterna
platypalpus
##katastrofen
tintin
richardson
alabama
##ñ
användarna
##christ
##fött
##lärd
petersen
huvudkontoret
dömer
picture
inhandla
accept
helle
##tät
schmid
reserve
amarantväxter
redogörelse
stop
portioner
fälldes
delong
kattungar
irene
nödvändighet
förvånade
missförstånd
göteborgsoperan
janeiro
gripandet
kläck
resenärerna
lekte
estetik
avgiften
rufi
##tec
lissabon
vilks
övervintra
utmärkte
utnyttjat
spänningar
rico
nollan
page
##anthemum
##legend
##paketet
ingången
pauci
anpassat
handlande
crepid
utmärker
sommarjobb
morpho
1798
##odicty
train
##tetranychus
skivspelarna
melbourne
förkortat
pressekreterare
omslaget
eslöv
åby
##mörk
##organet
varann
mascara
exotisk
hebe
##arenan
däremellan
dragning
rapporterats
statschef
##tavlor
bretagne
lyssnat
utrota
chase
##ovski
meigen
läppen
##petiol
##ettan
familjerna
blume
##oko
avlopps
##naturvårdsverket
uppståndelse
mästaren
##bradysia
##medlemmen
##passning
befunnit
oundviklig
olivia
obligationer
landsbygds
orb
seminarium
prisvärd
kulturhuset
##utsläpp
##namá
mexicana
##dry
aha
läggning
glädja
klipper
candida
släktskap
palmer
##klassiker
##armén
##hani
högtidlig
torv
tenn
sjöpungsart
templet
polygala
##lukt
##garn
kemist
bronsmedalj
puccinia
innehavare
craig
##uche
marathon
kalfjäll
expo
##stråk
##ärenden
vagnarna
smeknamnet
##bäst
budet
##fattig
##oooo
bim
polisstation
levin
##bestånd
allihop
coco
bärande
greta
amor
kramp
mördare
distant
##formig
##godis
käpp
stämpla
utgåva
tilldelats
angrep
##förälder
##clin
pressad
snowden
##flottan
muammar
sociolog
ungdomen
##ministrar
gräver
ptych
hudson
vardagsrum
deltävlingen
xanthorhoe
##euil
reell
underhållnings
härskare
startelvan
##peng
indikera
sbab
instrumental
calv
dani
skräddar
##dentatus
bladbaggar
tårgas
food
noct
sata
##bäcksländor
steel
hyresrätter
##-22
mobb
##skruv
trottoar
såvida
##skikt
##lobata
friskt
3-2
knepig
zingiber
håkansson
närstående
orientera
##adenia
##igenom
affärsman
kraftigare
lättast
konkurrent
##grodor
kulturminister
marius
mälar
##cylindrig
åldrarna
panama
strategier
cresson
##tanken
nicole
jakobsson
utövade
fiasko
##icosta
##rättigheter
luk
salo
tie
##search
##ympa
scelionidae
wheeler
förvirring
animal
lysandra
fiber
förgifta
##tabell
bege
förkasta
atlant
##förråd
##skugga
kränkningar
trasiga
##cole
enhetschef
krister
vega
melodier
##kust
##istik
simpl
explicit
ortodoxa
half
##tecknen
namnbärare
parent
tumör
280
debattera
fortsätt
danderyd
glida
fanny
##arab
skriftlig
hunter
##pie
odlade
livsfarlig
ixora
intensitet
perkins
udde
##förklara
pyssla
##skillnaden
miya
olämplig
##prins
kanoner
nazityskland
arcu
ansedd
schult
guillaume
ryggsäck
bygde
besläktad
häftiga
shen
maiden
gemenskapen
##ansinspektionen
olsen
mätningen
ingela
sordariomycetes
seattle
degerfors
träjonväxt
distinkt
skattepengar
sega
##bytet
blä
hyrde
attraktion
furste
ashmead
svartpeppar
skolgång
tenui
eviga
##culi
kvittera
intro
sedin
tolkade
fib
aquil
violin
väldiga
limenitis
sjuttio
sponsorer
gök
office
spiro
gehör
ovansidan
planeringen
##liljor
valutafonden
upprepar
fascist
prostitution
propp
##haha
##pappa
##ution
##behandla
begår
faktura
square
otrygg
mog
##staty
hamp
bois
godnatt
##katalog
3,3
##motståndare
tjockt
granskar
utökat
hemsk
härkomst
duschen
##ulf
östeuropa
förlorare
träningspass
goldman
härstamma
##ül
qing
##spräng
5-6
alexandre
##vågor
abdullah
rupert
gästspel
parvi
slösa
prinsessa
phillips
motsvarade
enzym
##
fobi
öberg
slipa
härskar
spegeln
druckit
myter
camar
##knipp
##parad
återvänt
skattesänkning
mikrofon
anonymt
rutor
invasionen
lantbrukare
locket
##upplaga
##entusiast
försäkringen
clement
fullborda
##kredit
capensis
rapsolja
##källan
korsning
melander
##cirkel
hedin
gröt
informerade
##bjørn
chockade
adressen
bright
hermansson
##onius
debutalbumet
##krävande
flaskan
ackord
##lift
campanula
1788
castle
nostalgi
##:10
tömma
##bänken
svårighet
##intresset
skyddat
överblick
filippa
##kvalmatch
##guenée
terri
##anthi
tomte
##instruktör
inspelningarna
impress
friberg
rosén
måttet
snow
omtalas
memoarer
##ovan
##bindning
##gemenskap
fukushima
utexaminerade
amortering
snyggast
trängsel
ssu
##cru
owen
nyemission
skyller
##pojke
råttor
3,4
distinct
##kulor
portal
borealis
##strömmen
tabu
snokar
bråket
155
##issimus
1780
äckliga
techno
knät
anopl
skandia
##drabbade
brotherus
morning
hewitson
oförändrat
##snygg
##fett
##förklarad
chamae
straffas
upplägg
dystra
chat
##kabel
tjo
##programmen
försenade
föregångaren
maine
burmeister
retorisk
sprutat
ensemble
127
##ught
parish
innersta
carn
theatre
marstrand
herald
cheir
mystik
miguel
broadway
cune
utlovade
underhuset
111
##yrket
elpris
sekel
tillgodose
##zier
estetisk
newton
##prop
lucky
obefintlig
sedda
föreligger
skickligt
backe
modernare
lieb
volymen
##tränger
##aulax
förstaplatsen
sydöst
unc
##orchis
indelad
återfanns
sidney
francesco
centralbyrån
utsikten
##äää
nashville
återupprätta
danne
monarkin
odlar
saturn
definitionen
lotus
oroande
kraftfullt
hyllar
diagnosen
pieter
kinna
tackat
1776
europeiskt
longipes
##ordinat
##ubi
färden
dendr
jubileums
alltihop
bäcken
1.1
potatisväxt
##experten
popul
förmågor
bergsjön
företeelse
pust
norrmannen
grun
ormar
quercus
goethe
sårade
delstats
xiph
anmälda
utlånad
##apparaten
##mördare
##metoder
##cypri
förvånansvär
nisch
borgmästaren
väninna
nemat
pam
nippon
gai
vettel
##sektionen
kolumn
stolp
tecknar
trophy
örat
prioritet
tungan
##fack
genomförande
armband
3,6
##pond
beklaga
korall
##moln
1600
bedrift
missfall
epic
uppsats
arbetsliv
much
tjena
vardagsliv
grace
rubro
##|
##cerus
banta
##nä
fräck
obligations
argumentet
149
evangelisk
style
veva
##elev
krabbspindlar
hyste
skrov
släpp
dagblad
##buljong
bokhandel
210
truck
naz
##gäster
fasciata
örnsköldsviks
holstein
##typhl
##cala
kattunge
charmig
utmanande
svets
through
skåda
araliaväxt
visdom
landarea
hänsynslös
##ämnet
sportbil
aphis
frän
schibbye
botaniska
amaryllisväxt
cape
fredric
dryopterid
lagkaptenen
basilika
hillary
##professor
2,9
##acci
maryland
sött
petit
familjeliv
skönlitterär
insignis
virtuell
rättsväsendet
117
filosofen
##byggen
##ostemon
grum
asplund
hassan
nagel
formulerade
raw
##löja
drak
mejeri
trappor
ryktet
vinruteväxt
trondheim
enderlein
syften
##kub
pleospora
##organisationerna
##coll
nöjer
österberg
##avfall
polyp
##arctia
nekade
##klockan
independent
parmeliaceae
stipendium
##evenemang
skurk
beier
townsend
halo
citerar
##mjöl
##glade
gnag
ofrivillig
orleans
##kova
universell
pseudonymen
##foto
shak
##isation
##recept
##olobium
polisanmälan
##ändelse
lösenord
##maritime
jacobson
holding
uppenbarelse
hyllan
parkera
##orhiza
##säkerhetsstyrkor
edition
##läraren
snyltrotsväxt
##inspirerad
utgrävningar
bistå
bragd
##rått
three
##icki
##4,8
dov
chamb
##präst
alchemilla
proportioner
##näbb
seglade
derbyt
alperna
delaktighet
hoya
kü
brother
behörighet
##ulifera
wallace
oxalis
arrende
invändningar
festuca
short
reaktionerna
bohem
doc
##ware
photo
legitimera
##mora
serietidning
anmäler
##isha
influensa
mossa
##ötalandsregionen
740
klockväxt
##shanensis
asså
undersidan
could
matti
skänka
##forward
upprustning
##stammen
debutant
cylinder
mecklenburg
norwegian
frag
sotji
långsamma
kartlägga
eco
bevisat
##motstånd
bagage
bankkonto
nikolai
##fläta
##bilderna
10-15
money
microp
tjugotal
122
##arbetstillfällen
##gymn
verser
caec
rasmussen
revisions
svärmor
##coach
deckare
##malm
##ological
filosofin
##baptiste
holländsk
##gonomyia
oceanen
fotbollsplan
anmärkning
reinhard
##dasineura
hampshire
villkorlig
polypodi
##chelus
fokuserade
jobs
kvarlevor
rumänska
ivanov
städning
cuc
företagande
kärleksfull
övertag
##fjärd
##resurser
industriområde
chimarra
̄
sundin
dyar
##wikipedia
perrier
##
mums
tusan
epidemi
uppgå
kokos
kroppslig
hylaeus
hängande
trådlös
##skaft
##klorid
##känslor
förändrar
skilje
116
##ible
##kommunistpartiet
fad
robotar
småhus
tetr
sammanfattar
bombay
belysa
malmström
övernaturlig
brooks
toppmöte
##hälso
children
inredningen
glor
##kensis
hedberg
tavlan
siv
aires
##kopplade
selaginella
analytisk
antropolog
fakulteten
luke
trollkarl
##ombudsmannen
beräkna
fysiker
sajter
vafan
sydkoreanska
##klack
strategiskt
##klubbarna
arbetsmiljöverk
##fenomen
lugnet
sönerna
oblong
involvera
begränsning
##känslighet
gudrun
porträttera
sjunkande
mirabilis
platygaster
trivial
##öring
##ogenes
kott
jävlar
##kärl
recession
visioner
digitalt
taggad
tystnaden
holl
andreasson
slottsskogen
storskalig
nämnd
bowl
nötter
resning
##framkallande
arom
buenos
chefsåklagare
josefsson
adjektiv
storslalom
cyperus
andraplatsen
sakkunnig
brasiliensis
enastående
termo
versa
ehr
polismyndighet
crin
nationalist
spanings
##prydnad
betänk
västbanken
fjord
förlita
qi
upplyst
northug
harmonisk
okunnig
befästning
åklagarna
yuan
färjan
isabel
ökänd
karaktärerna
##uya
pippi
cheferna
##formis
genomskinlig
smörgås
tuber
erotisk
##slingor
hif
söndagskvällen
skjuten
eff
##web
utslagen
semin
ventilation
ingripa
arbetsplatsen
kolonin
##meyer
erbjudandet
##valdes
inhemsk
husvagn
kommendör
storbankerna
curling
rush
industrial
faran
kollidera
avancemang
##ätande
1700
glaciär
guan
tillverkaren
bevarande
##shaw
pax
globe
opinion
##svårigheter
huvudbyggnaden
bysantinsk
hbt
invigd
eftersträva
simil
##aktivister
elatostema
agg
smäller
##vägarna
##я
kidnappning
drivrutiner
vattenflugor
utrustad
119
mångårig
##dröm
ekologisk
campus
stupade
visor
dichro
##prick
swan
abyss
stjärnbild
stadgar
åtalats
sevilla
instiftade
likviditet
chanserna
##firmor
rekommenderade
skräckfilm
genoa
anbud
blomqvist
tennisspelare
##förbindelser
isörtsväxter
apropå
##investeringar
starrar
åkerman
##apparat
brottslig
konsistens
balsaminväxt
handelsdag
nomada
##hardt
tamar
realitet
##otrichum
would
electric
##skadad
rahm
##producerad
thatcher
crotalaria
magnolia
bidragande
ropa
argumentation
förberedelser
infra
åtgärderna
guyana
beställer
spektakulära
##libri
##ochthonius
inseminera
gunnarsson
fiskare
gudarna
##kowski
administrera
katrineholm
bläckfisk
##ostemma
##spire
åratal
1795
ligor
poecilo
bourg
wisconsin
andnings
##:20
strategin
##reporter
##tofta
middle
bé
##stead
ljuga
feminin
##esund
oskyldiga
spermier
salongen
myten
##adoretus
##jäm
chill
australia
karaktäristisk
högtalare
##ijärvi
uppmanat
ljuvlig
falskt
herrarna
jacobus
terapeut
##azzi
mystiska
plånbok
single
remix
dammsuga
##print
monticola
lobo
drömde
ockupation
singellistan
hingst
badkar
toppade
konstitutionen
gratulera
netanyahu
fosfor
##tugg
problematisk
xx
kyrkorna
kommentator
upplägget
företeelser
##instinkt
andrej
swartz
sanering
leijon
marino
nike
skjortor
##guiden
smakade
uppfattat
map
##sajt
godtycklig
##avstånd
dykt
mäktigaste
##göteborg
ofredande
mazda
##arbetslösheten
##bågen
1787
förmå
sigfrid
##gest
##paviljong
zur
biskopsgården
rasat
tiondel
snurrar
heim
klistra
##ulosus
västerländsk
##bundsordförande
biroll
##bill
lagstifta
nässelväxter
rummen
##bock
##0,5
##esisk
##förhållandena
##odiplosis
salix
bibliotekarie
freud
erio
platon
ryms
högljudd
vinyl
påfallande
##veckor
hackad
...........
260
emblikaväxter
brorson
ohållbar
utropade
##fartyget
##inski
amata
dimma
eure
tolk
##teamet
1⁄2
palace
megalo
health
##astrum
woman
kreml
##melodi
##sidorna
griffith
kontinuitet
optimism
dagtid
regelbunden
mason
bränt
##låd
##dress
avseenden
bemötande
spräck
expeditionen
brooklyn
höjdhopp
glaset
##otrop
emblikaväxt
medföra
tolkat
##ifascia
##katolska
##bloggar
västeuropa
dopning
åskådar
##mät
bolton
legitimitet
muf
julianska
##litteraturen
garderoben
##varianter
hink
wahlström
nordöst
ryanair
##skärning
##resande
##opetalum
kristiania
legendariska
stum
förintelsen
##petalum
fästningen
lantbruk
##äf
##liche
château
arbetstagar
forel
##zyg
cupido
rabatter
mohammad
modesta
snarlik
mein
biografen
##territoriet
lägenheterna
westerberg
##smetoder
begränsar
##oloma
neptis
##sångaren
##dice
sunt
##försäljare
##bilarna
nordamerikanska
organist
osborn
eib
sandelträdsväxt
rigg
irisväxt
##dörr
orättvis
framträdanden
gräsmatta
sarco
##beteende
##dynamik
nedslag
cymb
tortera
paragraf
törla
stadsteatern
ljungberg
indigofera
burton
lecan
##opelma
brunner
##tobak
kalksten
sclero
orbi
self
packar
beskjut
tillräckliga
population
vrål
skrivelse
erbjud
village
##utvecklare
allvarligare
##artister
assyriska
##statliga
oförmåga
##problemet
störande
namibia
trängde
glitter
påståendet
##striata
##01_
##statistiken
irritera
asch
claesson
bevarad
sjukskrivning
basisten
sändningar
isabelle
slutskede
##otroch
illustration
kvm
företagsledare
kärra
kyrkorummet
sparre
##pdf
skri
adresser
heath
lindahl
trivas
##chip
premiärvisade
hoplo
meningslös
målsättningen
bemanna
##kollegan
##specialist
medelklassen
neop
akvarie
musca
reformationen
upphovsman
bår
berk
klagade
##verb
##jov
##vinnaren
rykta
älvdalen
läskig
sopran
spong
onödig
svartsjuk
lokalbefolkning
försvinnande
olivier
##rally
##tillägg
bläddra
försäljare
utnyttjande
synth
rc
européer
förnedra
vidsträckt
pedicularis
pardosa
decenniet
kandidatexamen
genombrottet
fjärran
primärval
industriella
pluto
tragiska
cebu
plagio
exteriör
förankring
flygel
protesterar
begriplig
initiativtagare
##gau
räls
lech
värmer
again
nürnberg
##odesmidae
döende
redovisat
olov
helåret
filmregissör
kryper
jättelik
förbinder
hemmaarena
räkningar
börser
##antia
hemmamatch
mördaren
##oku
farhågor
sundbyberg
problematiskt
crazy
keep
clusia
lukta
tsu
conference
montréal
africana
control
totti
timjan
cruci
grundaren
##ène
färgstark
valkampanj
leopard
vallmoväxt
gips
klippor
krigare
##themis
1791
polk
britton
ghost
kakor
kontaktat
bale
flaggor
##puckeldansflugor
dasyhelea
doktorsavhandl
valdeltagande
1796
regeringskansli
linux
##kedjorna
anthrax
##federation
kompaniet
konsul
transit
##ghz
överklagat
ahr
slutresultatet
##ceros
##saur
etnicitet
polypedilum
##skötare
drönar
tillaga
grimm
pristagare
hyser
kristendom
brahe
livsåskådning
etiketter
calcio
vägledning
folksam
kyrklig
bisarr
rankad
##nereis
transfer
##styre
läpparna
lämningar
lugnande
erfarna
befälet
verksamhetschef
##omorphus
frej
##wig
överviktig
baltikum
akvarell
kungadöme
vattenpipa
##ithorax
silvia
skönlitteratur
släck
##meddelande
venstre
lämpad
##föreställningar
reuter
primärt
sør
utformningen
##skinnbaggar
wiedemann
##skyltar
lekplats
lamell
##färdades
reception
gardner
##sträcka
djävulen
anal
##semester
##tjuv
sociologi
mögel
##.25
häcknings
##coel
dynastidae
vindeväxter
gutt
##anov
jämförelser
tydligast
rodriguez
##tändning
lipp
##idiaceae
motvillig
##will
resurserna
##mäki
dödliga
gästrikland
khaddafi
soloalbum
jennie
klarhet
##mattor
gurka
hoppfull
nikola
siam
##syssl
socialistisk
abonnemang
stridsvagn
populationen
inneboende
##riktad
bekymra
bygden
xbox
bussarna
idyll
tryckta
##får
avbröt
rotation
ärvde
emilio
##kinshasa
gynekolog
buffalo
nazi
studerande
##smäll
skicklighet
prioriterar
reinhold
perenn
världsettan
jvm
coelo
turismen
##anmäld
##satsningar
##möbler
grobladsväxt
utopi
rycker
##iggande
edinburgh
hussein
kontinuerlig
##leon
doktorn
triangul
##utövare
catocala
adoption
valhalla
försett
##redskap
täckte
soja
revision
nationalitet
procedur
sybra
level
aristokrat
monika
omkommit
restriktioner
omvandling
flexibel
gärningsman
fabric
hick
förvirra
tillbringar
rådjur
##lá
senat
apicalis
obetydlig
systematik
##förort
loppart
mour
hälsade
bokslut
kombinerat
lion
16.00
##kahn
anopheles
astronaut
liturgi
blomsterflugor
ansvarsfull
slum
##lagring
baksida
common
konsonant
##inrättning
milo
nedsatt
##vuxen
pressat
##tillverkarna
lagkamrat
valresultatet
tvättmaskin
norstedts
renoverade
kreditbetyg
alfabetet
hagström
billström
aim
bosättningar
konstakademien
##funktioner
opac
##spinnare
batman
landkreis
moster
resultera
##räknat
##color
düsseldorf
växellåda
rederi
teologie
parva
spaning
stubin
filmatisera
##icitet
trummis
regionerna
##avdraget
hjuldjurs
agaricomycet
##förslaget
översvämning
##gitarr
kunth
genomgår
##7,5
förbättrad
pö
##placerade
sväva
rubrik
##fasad
miljöminister
bataljon
räk
polygon
samverka
##sprocesser
genomsyra
passionsbloms
skrämmer
##potatis
bindande
##trion
nackdelen
stadga
ängla
deprimerad
dansade
riksdagsvalet
anno
##täkt
richter
##kym
karaktärisera
eugène
ocotea
nikkei
bortglömd
bokstavligen
stjern
skill
##student
##flickor
##intresserad
revidera
taggar
yngling
##5,3
norrmalm
punctata
nässelväxt
cyst
lü
##stakten
kakel
uppsatta
livnär
inträdde
minusgrader
##kick
saleh
modernisering
koreanska
##budgetunderskott
##fokus
##horst
bloom
etablerad
grannlandet
##hyllor
##öga
nyfödda
organismer
provinser
##power
lagkamrater
trimma
##ptus
assad
stekpanna
clown
##helikopter
astronomi
slarvig
egyptier
prestigefyllda
tecknat
kurdiska
esch
fiorentina
strobilanthes
regelbundna
strömsunds
##relationer
erlandsson
ridning
interaktiv
sedlar
pycno
plantering
skrämd
##onomi
fashion
karakteristisk
tegnér
opisth
ointressant
gruvor
imperial
kenny
bäv
kortedala
##talang
knutna
nordliga
##sprincipen
kanterna
orimlig
doll
utfärdat
##master
verhoeff
##midadcontrol
lönsamt
brink
##articlecon
uh
exponera
##entregion
##6,7
##ospila
instämmer
ironiskt
##hörning
klöv
hemsidor
bradford
##skiöld
##kring
firandet
##gnatz
arrangerat
världsekonomin
stenson
avstår
monstr
ockupationen
nationalekonom
skildringar
terrass
##kollektion
lanseringen
transcend
philodendron
beundran
lagändring
seminarier
##teknisk
socialism
##iloba
försprång
##ury
ställföreträda
bulgar
bergh
gudomliga
##bubbla
##3,5
toll
muc
##osiphon
stahre
##icaulis
##hab
lingon
##ogomphus
olga
kk
tecknad
vingarna
anamma
tjänstemännen
konstgjord
##punk
arbetarrörelsen
ott
palestinier
schoen
lagstiftande
##seminariet
blair
##smink
##uit
rapé
magnitud
emigrera
##komp
återställd
genomtänkt
##ranking
gomph
arkeologi
##martin
trix
ludvika
126
##skulptur
kortvarig
delhi
##pont
uttalar
##professorn
exklusive
##:15
##författaren
dalgång
skuldsättning
motsatte
gregory
grabbarna
utbrytning
##igne
gentianaväxter
##images
urskilja
##5,7
1.5
zero
muslim
amarantväxt
skyddad
carne
smeknamn
voice
alves
engagerat
levererat
hübner
utgåvan
##term
förståelsen
mäklaren
tänkbar
intrång
boulenger
svullna
insläppta
logotyp
cornelius
kablar
parallella
##proct
holmqvist
turneringar
formuleringar
trams
förutse
uppsving
##igma
##pom
åttio
allihopa
symboliserar
vulkanen
electrolux
davies
##peter
moderförsamling
bradley
bönor
136
chao
dosan
##departement
nordstan
strike
innovativ
generell
jupiter
kurserna
emmy
kärnkraftverket
bottnar
hummer
##bois
fängslad
cham
återta
nemor
regeringstid
##sticta
rollspel
militanta
oväntad
magni
alliansregering
##kid
styltmalar
vättern
ekologiskt
rover
##6,3
mordbrand
konventionen
##härva
biogas
cong
hysterisk
batt
schumacher
##ochloa
##comté
örjan
sophia
genuin
give
##ppi
rymde
fullfölj
diplazium
patron
biverkningar
trafikolycka
rubi
gumm
psilo
pou
##caudata
philosoph
förövrigt
otrohet
signaturen
tapeter
##ão
sirius
price
##icatus
trummisen
mållinjen
cott
##generation
über
dominic
visuella
juris
sergio
focus
offensivt
hässleholm
jeffrey
grävde
##genre
obalans
fullträff
berömde
##experter
##müller
##andri
jämtin
##mordet
hoj
coca
##känslig
##kommissarie
pajala
befogenheter
gudomlig
hundradelar
##tincta
1799
konstnärerna
rektangulär
zombie
##marne
identifierat
källorna
133
substantiv
fimbri
programmera
förespråkade
provinserna
knock
push
statsfinanser
naturgas
existentiella
sahara
homogen
stekt
pilea
anisodes
##snabb
##ël
aktiekurs
wanderson
skidåkning
##xxx
basist
##spegel
##kyrklig
##hotellet
##istus
pli
minima
##baserat
bergwall
##användare
ornith
förvandlat
canon
##städerna
##chow
irakiska
fullfölja
##sätra
grote
ilex
sydostasien
##sidigt
läxa
##överstiger
aurivillius
vegetarisk
##strukturer
byggnadsminne
##andro
allergisk
arjeplog
refräng
damallsvenskan
linjär
löfgren
##äventyr
##skrap
engagerar
##omysis
astma
förespråkare
canada
västgöta
krympt
blanchard
bryum
therm
grubb
##stallet
almgren
##echt
##brigad
tenor
fruktade
församlingarna
chip
##geschichte
henderson
vattenpolo
logistik
mannheim
##serierna
föreläsare
uc
maro
flabell
gardiner
##sulfat
filosofer
##down
polyrhachis
upplöst
dirigera
branch
anordnar
zin
hjelm
självfallet
##lexikon
musc
oklahoma
vållande
heavy
##lycka
programledaren
##sländeart
sang
khl
##huvudstad
hyph
nässjö
oavgjorda
##bebyggelse
klint
uppkommer
monumental
hessen
vetemjöl
inblick
##intag
solit
shop
stubb
kontraster
magnesium
utsmyckning
provtagning
##guttata
pulchra
konstantinopel
île
iscensätt
##pterus
eriocaulo
insatserna
##tibialis
lynn
sydafrikanska
##överskridande
##fibrer
fasci
framkommer
wait
electro
linjerna
lyg
komplexitet
atrichopogon
köttfärs
rojas
nödlån
loreen
##opeltis
##incontent
tany
clemens
flum
##furstendöme
kho
landsmannen
filosofisk
arbetande
dessert
detonera
##plagg
##filter
dinosaurier
patriark
föreslagna
separerade
##vás
utplåna
engberg
1797
axén
relaterade
council
1781
skaldjur
##monument
signerat
skatterna
alexandria
reviderade
##rapportering
##infektion
##samarbete
uppsåt
mårtensson
spårvägen
tromb
1772
slovenska
plågsam
##iflorus
organiserat
trafiksäkerhet
konstnärligt
##skill
gäl
equi
betalningar
resmål
undgå
philippe
##−
hep
turbulens
rymlig
##hack
århundradet
barth
arthro
fantasin
svåger
##saône
fjädrar
gastro
anledningarna
##700
otillräcklig
##resenär
kustbevakningen
importerade
upphört
##biblioteket
3,8
##0:-
dominerat
diskriminera
pusilla
##handlaren
trafikkontoret
camel
grammy
ruiz
##ов
##ocampa
##signaler
##fontaine
medvetslös
avveckling
förstnämnda
kvicksilver
attribut
rikare
inkorporerade
patric
anrika
värmdö
patruller
caul
croton
##ewski
##chang
legendarisk
loh
facklig
community
inträffa
realistiskt
9-5
processorn
konkurrerar
##mouth
seven
##kopplad
##tuber
silvestri
medeltid
obehag
##
kategorisera
isörtsväxt
mobilisera
moc
##lossning
dx
neråt
rugby
##bourne
aprostocetus
bekännelse
förbannat
lithobius
wonder
kidnappade
##ionscentral
##herrar
hilara
##lektion
##försäkringar
andetag
komponent
woll
företrädesvis
väsby
belägra
##hypo
hede
präglar
##fjord
sham
dmitrij
underordna
string
bennett
recensera
privatekonom
##plantor
barbar
##tail
##osyllis
investerarna
skritt
mccartney
##vätska
sump
argumenterar
garde
öfver
sumakväxt
nattetid
##känsliga
klätter
ansökte
suu
##jevitj
##oxyl
reaktorer
hedlund
raja
särskilj
katoliker
biopremiär
sydligaste
##framträdande
stavas
dokumenterade
flygningar
##pasta
usla
marlboro
luz
popular
townes
heinz
silfver
föreställande
tvekar
utrett
mauritz
fotbollsmatch
##otrema
weiss
##kompaniet
åldersgräns
faust
zheng
330
arktis
##silvret
##.05
equ
##pak
irritation
viruset
oblast
##arrangemang
skriftligt
uppfostran
konstgräs
##plattan
företräder
peak
siri
söderström
cichl
##vuxna
partikel
##dromia
byx
arctic
konton
bokmässan
##flicka
##mästarna
polystichum
##ر
märkvärdig
luigi
##colo
##kännande
törs
klippan
##vecklades
##oplia
##gler
mimosa
##auropus
vrida
delstat
nykter
postade
stoke
pohl
##ijn
##anthum
sysslo
lampan
##ρ
massage
tillförlitlig
ekorr
##spänn
3,1
ryssar
musikhögskolan
##buch
kalcium
satyrus
schablon
donerade
##ól
reservdelar
##check
##brück
##sörjer
##ägt
troch
##räknelig
kurvan
eliminera
##tvåan
pseudonym
intressenter
salva
##mble
kanarieöarna
rü
vindeväxtart
##otto
dynamo
hypoc
kammarrätten
besvärligt
notan
bristerna
lysekil
##sajter
concept
fish
##hysteri
##glottis
mottagaren
programvara
exemplen
bailey
bemöta
tricot
dekoration
stadshuset
##bräda
aaron
##orius
adlades
medvetandet
##bråk
##bog
nordsjön
vårdnadshavare
jesuit
##yllis
hemtjänsten
börsnotera
##trem
##segling
illustratör
spelande
sminkning
stug
garv
azur
##hytt
dyrbar
svanberg
fräscht
slöjd
container
sensor
pedofiler
##vac
silvermedalj
##water
##ogastr
farväl
nyårsafton
sunderland
medelstora
återfå
saxofon
lakrits
kalix
avvaktar
##rutor
##ostola
tätare
stormade
skjortan
gig
östkust
fyrkantig
bunt
förövare
##.500
tecknare
heroin
##ν
hotellrum
missförstå
chilensk
senap
zhu
sensationell
fridolin
##inriktade
##säkringsbolaget
häft
safari
örnsköldsvik
nyblivn
lionel
vasaloppet
sötvatten
kuvert
close
jackan
limb
enklast
##struktiv
proteacea
hispid
##cirklar
skarv
aulac
hamburgare
racerförare
renodlad
jamie
attraktivt
glimt
##diskussion
gerhardsson
piska
##innehavare
coryn
läktare
hercostomus
nephrotoma
forever
##odexia
##radion
hadr
misslyckad
pablo
serverade
rockbandet
##skildring
spärrade
silvermedaljör
sjöstjärneart
kvalitativ
jämlik
##kärnor
whisky
argyro
innerst
babylon
stormar
arrestera
##lägenheter
delstaterna
lögner
buddhist
inställt
arvode
damsidan
oseriös
adhd
fetma
youngman
##aaaa
klargöra
korkad
intakt
simplic
atract
boxare
sesam
lorentz
hyfsad
very
reticulata
##berättelser
going
dé
kineser
utöya
bikini
##karbonat
hammarström
musikvideon
##ophylax
häm
##xiph
rasist
##sjöån
beloppet
ipomoea
technology
persilja
##sluttning
##break
nystartade
vindkraftverk
byggmästare
##misstänkt
framställde
spö
cause
josefine
lenin
##tecknar
näringsminister
xiao
##palm
sandy
polisbil
skälig
rhomb
spenderade
pak
interagera
antill
misstänka
##erfarenhet
diplom
##känning
biltillverkaren
missköt
smittade
##tröjor
##motet
partiledningen
handskrift
vaccination
6000
wave
view
murphy
##5,8
magnific
acceptabelt
ormbunke
köttbullar
segrande
##sekret
glut
##flöden
slaveri
tokyobörsen
##sladd
skämmas
##scelio
pakistanska
tanytarsus
almedalen
knyter
##klyfta
undulat
##ional
östlund
tian
saknad
morrison
strongyl
förfarande
konståkning
teologisk
vrider
clype
mästerverk
hamngatan
arrest
##ño
börsbolag
krater
äh
länskommunikat
board
##tålig
##dimension
##tabletter
##generator
kawa
helige
fotografering
##pojkar
ossian
stadsbibliotek
vilhelmina

3,7
koncentrerad
##7,8
regisserat
##intendent
invadera
nitton
hyror
accent
dubbdäck
platina
whe
sanguin
monterade
gädd
nylander
karolina
marginell
##nigra
smycke
ronneby
årtionde
omdömen
fastighetsbolag
ritad
swinhoe
##issi
1770
##sträckan
ornata
##odytes
##spray
nal
kontrovers
##ääää
giuseppe
smartphone
toivonen
besparing
pubescens
tänt
mätte
marginellt
underhållet
##spring
segrade
diktare
strong
hormoner
lyste
##rött
ljusdals
elaeocarpus
oerhörd
spoiler
topplag
gangster
##micro
##enkät
sulc
lé
luthersk
##benz
tillåtelse
förbundslandet
olovlig
##smör
chick
kungsgatan
rapporterna
erbjudanden
planterade
##pär
förnekade
skev
försämrade
chion
##ovsky
tveksamma
världsklass
benghazi
experience
steyermark
kaotisk
uppgett
brew
ärftlig
krönikör
##regi
##alpin
rehab
pommern
jepp
marginata
bostadsområden
regerade
##stitut
alshammar
tryggare
penis
begagnade
##ogonia
tong
hizbollah
##löpning
socialbidrag
sjal
framväxt
##rådgivare
isaak
##anställning
hyde
such
caerul
hederlig
smällare
predikan
julklappar
björling
gemin
##ción
smärre
something
billigast
tavla
##ophanes
##trast
tanger
##demokratisk
##flug
slim
språng
##teknologi
##на
predikstol
ladugård
barend
lenn
flik
födseln
##yang
nac
skuggor
uppsatser
theory
femtedel
##ocryptus
pendel
suppleant
välmående
##aggregat
kvalserien
skrivandet
erhålla
uppfinnare
rhynch
ansträngd
##batteri
sympatisk
etnograf
##igena
anfallsspel
##niemi
speak
snusk
kriminalvården
höjdare
next
sally
novak
dix
statisk
jeanette
detaljerade
inbegrip
kongressledamot
serierna
objektet
hannah
friktion
schulz
utpressning
anlagd
##medaljör
georgiska
##utgivning
förutsägbar
reporäntan
uteservering
yoghurt
##calyx
patriot
##ostomus
australian
##bränning
##aktivist
##fantast
##uuuu
axlarna
myrcia
##sagan
hampus
##nätverk
konserthuset
häktet
hälsovård
agaric
rondell
##ostomum
##μ
adelsohn
honduras
dawn
koranen
##vittatus
komikern
jordgubb
betytt
ordbok
##evic
misshandlat
banbrytande
sammandrabbning
calam
nelly
##chthonius
reklamfilm
everton
skiner
anhörig
funktionshindra
miquel
bauer
statistiskt
##dubbla
itne
ansats
toppmötet
pitch
lily
##golf
efterkrigstiden
dakota
begåvning
prästgård
kohl
##drog
##racing
lisso
violet
riksdagsledamöt
utmärkelse
lign
##,75
production
##city
sylvia
demonstrerade
församlingskyrk
future
eurokrisen
kabin
##ognatha
nobelpris
genomsnittet
##utövning
##betala
sne
marklund
närbelägna
margarit
lingvist
sprack
##5.000
försäkrade
höglund
##fraktur
högstadiet
##bov
framkommit
skiftande
##coenosia
svälja
jiang
gymnasieskolan
##optila
animerade
maskerade
utomordentlig
freddie
lanserat
hejda
ensemblen
mollis
jämförde
stud
##ochernes
troja
blast
donera
sydsudan
##pap
sensation
munro
indianerna
uppmärksam
yves
##faci
valid
gabon
framsidan
palestinsk
serena
finansierade
lif
brudar
flak
hopplöst
mallorca
##ceremoni
oroade
droppar
##genia
medhjälpare
magasinet
##klav
hövding
temporär
##gawa
vätskan
cyklade
bageri
##jobbskatteavdrag
hjärtinfarkt
##glob
swing
kravaller
northern
nrk
##supportrar
beskattning
agendan
delfin
underjordiska
albrecht
##nätverket
längdhopp
##maladera
enkelhet
cheilo
##ι
auktoritär
mycalesis
boström
balsam
swed
[...]
